{
    "\u0120maintain": 2125,
    "mL": 37232,
    "Italy": 46831,
    "\u00e4\u00bb": 15076,
    "du": 496,
    "fh": 45833,
    "\u0120fre": 1619,
    "Accessed": 37730,
    "\u0120opium": 37273,
    "\u0120phylogeny": 41400,
    "\u0120replenish": 37908,
    "sites": 31102,
    "\u0120Indicators": 43605,
    "\u0120Jour": 15113,
    "\u0120\u00e2\u0122\u00a2": 7825,
    "ides": 1677,
    "DEs": 39611,
    "\u0120Least": 43641,
    "casters": 36179,
    "\u0120shimmer": 47015,
    "\u0120CPR": 29029,
    "\u0120deleterious": 43320,
    "\u0120Administrative": 36800,
    "rinted": 24709,
    "}\".": 21770,
    "adone": 47442,
    "\u0120grateful": 18044,
    "\u0120Identification": 24708,
    "\u0120hunting": 8951,
    "\u0120nuclear": 5147,
    "\u0120rapp": 26510,
    "\u0120stereotype": 33714,
    "iencies": 13460,
    "ryst": 16184,
    "Head": 15697,
    "\u0120primarily": 4856,
    "getter": 26021,
    "rec": 5751,
    "\u00d0\u00be\u00d0\u00b4": 37625,
    "angible": 27251,
    "\u0120commend": 42182,
    "\u0120carcinogenic": 36981,
    "aith": 28761,
    "\u0120autoimmune": 17789,
    "\u0120gesture": 21800,
    "\u00e2\u0124\u00ac": 14195,
    "\u0120PARTICULAR": 42577,
    "\u0120peril": 30226,
    "\u0120Priest": 36992,
    "\u0120truthful": 42079,
    "Night": 46081,
    "codes": 27861,
    "ardship": 11926,
    "it": 269,
    "ultz": 46266,
    "utils": 7638,
    "\u00d0\u00b0\u00d0\u00bd": 29929,
    "\u0120unpleasant": 18442,
    "dose": 17470,
    "\u0120aiming": 18572,
    "\u0120dry": 3498,
    "SL": 10199,
    "chars": 33879,
    "\u0120heres": 35498,
    "\u0120valuation": 34234,
    "Dynamic": 46241,
    "estern": 2870,
    "stat": 13394,
    "urian": 45799,
    "folder": 12145,
    "ered": 1283,
    "seven": 27867,
    "\u0120Hypothesis": 41189,
    "\u0120ETH": 47375,
    "GD": 24607,
    "\u0120decade": 7255,
    "\u0120epsilon": 35592,
    "\u0120earthy": 44315,
    "alls": 3255,
    "rickson": 46072,
    "\u00c3\u00a3o": 17031,
    "\u0120Yellow": 13581,
    "\u0120prevailed": 30616,
    "\u0120vegetarian": 20851,
    "\u0120whenever": 7562,
    "\u011a": 211,
    "\u0120LS": 33938,
    "').": 11724,
    "\u0120visitors": 7803,
    "\u0120outage": 48579,
    "\u0120hydroly": 35366,
    "Bur": 25758,
    "mesh": 18999,
    "\u0120Fresh": 20030,
    "\u0120edited": 14220,
    "\u0120queryset": 41215,
    "\u0120pa": 15125,
    "\u0120security": 3292,
    "\u00b9": 134,
    "\u00f0\u013f\u0132": 45100,
    "oscow": 15120,
    "\u0120ceremonial": 25702,
    "\u0120disband": 43048,
    "\u0120monkey": 19660,
    "LEX": 35256,
    "rach": 40377,
    "app": 1207,
    "wings": 46293,
    "saving": 22183,
    "gid": 47666,
    "io": 1119,
    "\u0120again": 1163,
    "essim": 31434,
    "\u0120Nervous": 46633,
    "\u0120aging": 9447,
    "\u0120isinstance": 7923,
    "chism": 47067,
    "\u0120grassroots": 25876,
    "oc": 406,
    "\u0120Lancaster": 33020,
    "\u0120Million": 34785,
    "\u0120whimsical": 44211,
    "\u0120porous": 26768,
    "alu": 2716,
    "undant": 46083,
    "\u0120medically": 31571,
    "\u0120aerial": 17751,
    "\u0120simplified": 20004,
    "olip": 34607,
    "\u0120Clan": 47453,
    "ounced": 5666,
    "\u0120hallucinations": 33935,
    "ptom": 9261,
    "LAG": 48208,
    "extend": 19237,
    "\u0120anode": 36758,
    "Calcul": 26910,
    "\u0120lepro": 46224,
    "\u0120topical": 22219,
    "lysses": 39586,
    "\u0120deteriorated": 40321,
    "ONS": 43862,
    "()`": 13084,
    "abilistic": 41006,
    "AI": 13701,
    "\u0120</": 22577,
    "\u0120IP": 6806,
    "\u0120Vlad": 26370,
    "\u0120blossoms": 31455,
    "\u0120outputs": 13594,
    "\u0120Grab": 34241,
    "\u0120paralyzed": 41580,
    "\u0120memorial": 17278,
    "Remote": 46068,
    "\u0120perspect": 3169,
    "ference": 17788,
    "lier": 25741,
    "\u0120Bay": 5943,
    "\u0120Greenpeace": 43659,
    ")!": 31050,
    "ylon": 12731,
    "nees": 47988,
    "\u0120Holding": 41321,
    "\u0120Sessions": 47028,
    "\u0120complaint": 19283,
    "MT": 13574,
    "\u0120deduct": 30766,
    "\u0120examiner": 44129,
    "\u0120poets": 15583,
    "ola": 7866,
    "\u0120Journal": 4280,
    "\u0120cli": 38398,
    "\u0120stunted": 45199,
    "\u00d0\u00ba\u00d0\u00b0": 34536,
    "\u0120popped": 40295,
    "\u0120recall": 8556,
    "\u0120stripes": 23158,
    "\u0120conven": 7417,
    "rosc": 15456,
    "\u0120orphans": 41526,
    "\u0120readings": 13026,
    "\u0120deton": 43555,
    "\u0120Eagle": 23985,
    "\u0120Chem": 17536,
    "\u0120drain": 7013,
    "\u0120maxim": 3933,
    "website": 46247,
    "Five": 26423,
    "\u0120Approaches": 24803,
    "\u00e6\u0130": 33185,
    "\u0120CPU": 17756,
    "IRED": 46737,
    "ility": 783,
    "\u00e0\u00b8\u00b2": 43662,
    "\u0120Arr": 29674,
    "\u0120Pacific": 6125,
    "\u0120Bra": 4912,
    "\u0120causes": 2981,
    "\u0120ctypes": 28222,
    "ADDR": 45092,
    "icians": 5074,
    "\u0120ende": 10510,
    "\u0120melancholy": 46073,
    "\u010a\u0120\u0120\u0120\u0120\u0120\u0120\u0120\u0120\u0120\u0120\u0120": 629,
    "\u0120lign": 33653,
    "\u0120gems": 22582,
    "\u0120Wheel": 24163,
    "\u0120naval": 14309,
    "\u0120sung": 20769,
    "\u0120tele": 4462,
    "threshold": 16175,
    "\u0120intermittent": 26439,
    "\u0120drastic": 24601,
    "\u0120probiotic": 32194,
    "authent": 27978,
    "\u0120sh": 443,
    "\u0120throughput": 34349,
    "\u0120leisure": 18266,
    "imar": 35794,
    "\u0120inlet": 34280,
    "adder": 8874,
    "\u0120Bryan": 35356,
    "\u0120Allied": 17204,
    "\u0120Conflict": 20093,
    "\u0120allerg": 6102,
    "\u0120Beans": 46870,
    "Na": 26062,
    "\u0120laugh": 13731,
    "ocrit": 34756,
    "\u0120outcome": 7616,
    "\u0120guise": 45716,
    "cemic": 25761,
    "fluid": 29308,
    "animate": 39562,
    "elta": 9311,
    "\u0120abscess": 27711,
    "\u0120repaired": 25589,
    "\u0120restorations": 44832,
    "ivot": 35982,
    "igraphic": 41243,
    "\u0120Crete": 36185,
    "bard": 29284,
    "\u0120Dorothy": 33957,
    "\u0120biom": 8803,
    "\u0120disrupts": 37452,
    "\u0120turned": 4642,
    "\u0120Conversion": 37568,
    "\u0120plays": 4566,
    "\u0120troubles": 15348,
    "\u0120wandered": 41668,
    "pletely": 38412,
    "\u0120contributor": 21804,
    "compan": 39580,
    "\u0120globally": 11565,
    "png": 10445,
    "utrient": 23211,
    "void": 32439,
    "\u0120medication": 6556,
    "pi": 9020,
    "\u0120canceled": 43619,
    "\u0120art": 984,
    "\u0120phonological": 44760,
    "\u0120crickets": 43813,
    "Hit": 40547,
    "usion": 3919,
    "\u0120cass": 22491,
    "\u0120Esther": 28938,
    "\u0120sanction": 27306,
    "\u0120GDP": 13407,
    "\u0120lesbian": 24269,
    "):": 727,
    "ml": 3566,
    "\u0120stain": 15270,
    "selves": 1865,
    "\u0120etc": 2686,
    "\u0120Dimensions": 43887,
    "\u0120subsets": 38974,
    "Lect": 46959,
    "advent": 41043,
    "member": 17932,
    "Fit": 32533,
    "Tuesday": 35303,
    "ifiers": 11765,
    "iyah": 48178,
    "\u0120Ke": 4056,
    "commit": 15593,
    "\u0120slight": 11682,
    "\u0120stom": 39190,
    "\u0120gradu": 3370,
    "rav": 10331,
    "\u0120Hyder": 43767,
    "\u0120\u00c3\u0138": 45788,
    "equipped": 32750,
    "target": 6999,
    "]<": 15971,
    "\u0120void": 20554,
    "\u0120Hong": 14469,
    "associ": 17419,
    "\u0120Rev": 4827,
    "Backend": 47713,
    "\u0120drank": 28970,
    "\u0120energized": 37562,
    "\u0120Save": 16326,
    "\u0120TO": 9549,
    "\u0120gallon": 25240,
    "apt": 1889,
    "\u0120bridges": 12223,
    "on": 258,
    "\u0120jelly": 21292,
    "\u0120Alert": 32428,
    "\u0120Tony": 26326,
    "\u0120Zoro": 35447,
    "\u0120Knowing": 20403,
    "An": 2089,
    "cars": 40112,
    "\u0120costly": 13551,
    "\u0120territories": 10643,
    "\u0120Mn": 47741,
    "\u0120garn": 22878,
    "\u0120Monsanto": 40233,
    "ilization": 20768,
    "domains": 45865,
    "\u0120Thousands": 31343,
    "\u0120panoramic": 43458,
    "hib": 2569,
    "\u0120combating": 29643,
    "acco": 8081,
    "\u0120sound": 2139,
    "\u0120Academ": 6179,
    "\u0120acidification": 34558,
    "\u0120physic": 14032,
    "\u0120failed": 6344,
    "earned": 42341,
    "orph": 7240,
    "\u0120INTER": 32869,
    "\u0120incapable": 28719,
    "tag": 9204,
    "))[": 46165,
    "\u0120animation": 14761,
    "\u0120chosen": 5958,
    "\u0120deferred": 48033,
    "idad": 23541,
    "\u0120Mari": 27160,
    "\u0120gradient": 14684,
    "\u0120gradual": 15941,
    "\u0120comet": 19549,
    "\u0120sideways": 38278,
    "peutic": 8587,
    "dimensional": 10266,
    "\u0120loan": 11001,
    "\u0120exodus": 43564,
    "\u0120Revival": 32400,
    "\u0120merged": 21284,
    "\u0120numbered": 22266,
    "jid": 47903,
    "\u0120\u010a\u0120\u0120\u0120\u0120\u0120\u0120\u0120": 15182,
    "\u0120Brigade": 25925,
    "\u0120pumped": 26146,
    "\u0120Mer": 8700,
    "\u0120cleanup": 23559,
    "\u0120Depending": 13542,
    "\u0120gates": 17816,
    "mble": 15689,
    "\u0120[('": 47191,
    "\u0120Controvers": 36448,
    "\u0120Outline": 34143,
    "ients": 1526,
    "\u0120being": 1036,
    "inclusive": 48241,
    "\u0120employ": 2057,
    "\u0120outrage": 27599,
    "\u0120encir": 35441,
    "\u0120responsibilities": 9131,
    "\u0120indigenous": 6071,
    "\u0120seb": 43346,
    "NM": 36406,
    "\u00d9\u0130": 14776,
    "\u0120Liquid": 33954,
    "\u0120WOR": 35612,
    "\u0120detection": 7339,
    "\u0120gener": 991,
    "Psych": 23686,
    "\u0120compartment": 25901,
    "\u0120midday": 48376,
    "\u0120Diabetes": 14463,
    "\u0120Gandhi": 19793,
    "\u0120mind": 1945,
    "\u0120mish": 32278,
    "\u0120resigned": 28498,
    "\u0120symbolize": 27386,
    "\u0120towns": 8820,
    "\u0120Majesty": 35522,
    "\u0120glucose": 8102,
    "\u0120swinging": 38829,
    "dead": 23496,
    "By": 3087,
    "inav": 19720,
    "\u010a\u010a\u0120\u0120\u0120\u0120\u0120": 28577,
    "\u0120Builder": 48067,
    "\u0120overth": 22002,
    "\u0120pressured": 38828,
    "\u0120wonder": 4558,
    "\u0120endeavor": 20640,
    "\u0120lunchtime": 41538,
    "\u0120op": 1158,
    "\u0120Businesses": 29958,
    "\u0120Wi": 15030,
    "\u0120Kan": 21606,
    "\u0120Alien": 43734,
    "MN": 44434,
    "ificantly": 42761,
    "arcane": 39514,
    "\u00e6\u0142": 26519,
    "\u0120Corinthians": 31291,
    "----": 586,
    "roximately": 15652,
    "ucent": 33663,
    "\u0120ANC": 43243,
    "\u0120Lung": 24593,
    "Student": 28329,
    "\u0120certificate": 14418,
    "oflav": 37874,
    "call": 4350,
    "dprinting": 48674,
    "highest": 44389,
    "oct": 23886,
    "rapy": 5223,
    "California": 28314,
    "\u0120Tsar": 44308,
    "\u0120conclusions": 10302,
    "raid": 11152,
    "Several": 14117,
    "\u0120abound": 28493,
    "\u0120Arlington": 39564,
    "\u0120genotype": 31681,
    "\u0120myself": 7576,
    "\u0120portraying": 42968,
    "\u0120qualifications": 20705,
    "inely": 11738,
    "reated": 10709,
    "\u0120Turner": 23080,
    "\u0120disadvantaged": 25152,
    "\u0120lest": 35793,
    "\u0120robotic": 18381,
    "\u0120Literature": 11728,
    "Symbol": 28308,
    "mese": 34298,
    "ON": 2154,
    "party": 16068,
    "rips": 48744,
    "interpol": 37713,
    "\u0120Deut": 24952,
    "\u0120Forbes": 36151,
    "\u0120diluted": 29454,
    "\u0120relationship": 1986,
    "pickle": 28476,
    "abetics": 30319,
    "\u0120hitting": 18303,
    "\u0120replica": 30573,
    "\u0120No": 2838,
    "\u0120rise": 4095,
    "\u0120[])": 33446,
    "ember": 1548,
    "some": 11246,
    "\u0120Ald": 20604,
    "\u0120injure": 39894,
    "\u0120organisational": 44521,
    "ded": 4680,
    "plication": 18622,
    "\u0120nucleotide": 33798,
    "\u0120selector": 48404,
    "Default": 23572,
    "IONS": 13675,
    "\u0120contend": 22747,
    "\u0120pathologies": 46427,
    "\u0120assays": 29471,
    "\u0120uncharted": 44898,
    "\u0120contour": 29390,
    "\u0120Homo": 28081,
    "came": 35324,
    "\u0120Norwegian": 19498,
    "eclampsia": 42120,
    "EEK": 42070,
    "\u0120Abraham": 11784,
    "\u0120BAS": 20509,
    "\u0120Institutional": 39749,
    "\u0120Kelly": 22919,
    "\u0120epigenetic": 31642,
    "\u0120rack": 25786,
    "\u0120sunburn": 35541,
    "\u0120something": 1488,
    "\u0120Lincoln": 9643,
    "\u0120Plate": 18521,
    "\u0120season": 3645,
    "\u0120Natl": 39251,
    "\u0120Pot": 8325,
    "\u0120CR": 11012,
    "\u0120destroy": 5142,
    "ields": 2673,
    "\u0120Engel": 47815,
    "\u0120Hispan": 14048,
    "\u0120buds": 19691,
    "\u0120stair": 24296,
    "Much": 21811,
    "\u0120errone": 28229,
    "\u0120pain": 1556,
    "\u0120unjust": 22101,
    "\u0120girls": 5901,
    "FER": 36500,
    "ription": 2831,
    "oran": 44094,
    "\u0120Irish": 8335,
    "racing": 15481,
    "\u0120king": 4197,
    "\u0120mt": 35151,
    "\u0120guideline": 25259,
    "\u0120improper": 18315,
    "\u0120Damascus": 35686,
    "orget": 38131,
    "pkg": 33387,
    "\u0120regist": 6932,
    "\u0120overarching": 37757,
    "doms": 19935,
    "\u0120frank": 24666,
    "\u0120Hello": 38699,
    "\u0120Ori": 16806,
    "\u0120algorithmic": 38655,
    "\u0120vaccinations": 24466,
    "\u0120dummy": 31689,
    "\u0120Luxembourg": 39123,
    "\u0120scientifically": 21874,
    "\u0120Examining": 24839,
    "\u0120Cyprus": 27611,
    "\u0120pushes": 24287,
    "learn": 11418,
    "\u0120challenged": 12594,
    "\u0120comm": 600,
    "\u0120showing": 5369,
    "\u0120openings": 22552,
    "\u0120distinguishing": 22799,
    "\u0120executing": 22832,
    "\u0120musculoskeletal": 31828,
    "\u0120payments": 11885,
    "\u0120policym": 12560,
    "\u0120Economy": 20333,
    "\u0120ME": 21029,
    "\u0120IPv": 29973,
    "'):": 9904,
    "GY": 32710,
    "atitis": 22853,
    "\u0120Belgian": 28031,
    "\u0120Lib": 7214,
    "\u0120parameters": 6116,
    "ijn": 49096,
    "\u0120Sure": 16096,
    "\u0120plast": 46423,
    "ooking": 2088,
    "\u0120urine": 9993,
    "chrane": 37716,
    "\u0120Ak": 12636,
    "\u0120Prepared": 34336,
    "\u0120receiving": 7418,
    "oring": 1522,
    "\u0120bones": 6542,
    "\u0120jury": 19328,
    "\u0120lik": 1729,
    "\u0120relativity": 24581,
    "\u0120Portuguese": 14136,
    "\u0120invariably": 31383,
    "\u0120biblical": 12451,
    "\u0120STEM": 11524,
    "\u0120hearth": 47834,
    "\u0120crustaceans": 35145,
    "\u0120Technologies": 17666,
    "\u0120Matrix": 25343,
    "\u0120colors": 4683,
    "\u0120Beyond": 16291,
    "\u0120Kol": 27471,
    "\u0120bankrupt": 21065,
    "\u0120immunotherapy": 40682,
    "\u0120thumb": 13124,
    "instances": 32429,
    "\u0120Nancy": 25141,
    "CU": 38393,
    "\u0120currently": 4112,
    "\u0120Pandas": 46899,
    "\u0120payroll": 40472,
    "\u0120structurally": 39604,
    "\u0120juris": 9484,
    "\u0120trib": 4876,
    "avering": 31389,
    "\u0120shrew": 45345,
    "\u0120Til": 39135,
    "\u0120igneous": 44318,
    "\u0120fragrant": 29585,
    "metries": 44578,
    "irt": 6746,
    "bank": 19501,
    "ivative": 44916,
    "\u0120eliminates": 24758,
    "onstr": 20692,
    "\u0120dishonest": 41288,
    "ukary": 25969,
    "\u0120fra": 8767,
    "tom": 39753,
    "\u0120garments": 22566,
    "\u0120highway": 17603,
    "TA": 14106,
    "\u0120assesses": 37104,
    "Bill": 33500,
    "bots": 32722,
    "\u0120pige": 24883,
    "ocket": 7150,
    "\u0120species": 1772,
    "uro": 1392,
    "\u0120sponges": 37016,
    "\u0120Marg": 11640,
    "\u0120labelled": 30039,
    "\u0120medications": 6138,
    "\u0120statistical": 9598,
    "\u0120sex": 2710,
    "\u0120Abdul": 36055,
    "studied": 44605,
    "\u0120Vulner": 34591,
    "\u00e6\u012a\u00b7": 42729,
    "\u0120nurtured": 41577,
    "\u0120Scripture": 17658,
    "elivery": 19405,
    "\u0120rushed": 27710,
    "\u0120steril": 28118,
    "issue": 2195,
    "\u0120beasts": 32463,
    "\u0120give": 1928,
    "\u0120hypothalamus": 42296,
    "\u0120Manip": 31396,
    "filtered": 30292,
    "\u0120pal": 5008,
    "\u0120Practitioners": 42415,
    "\u0120territorial": 16187,
    "\u0120supernova": 32980,
    "\u0120torch": 5984,
    "\u0120valued": 12637,
    "\u0120Falls": 19911,
    "\u0120Okay": 34763,
    "sav": 29725,
    "\u0120fastest": 17938,
    "Poll": 42073,
    "inched": 47295,
    "\u0120Feed": 15669,
    "\u0120Guinea": 17664,
    "\u0120armed": 9672,
    "\u0120Pearson": 27636,
    "\u0120cro": 13713,
    "\u0120deviation": 16960,
    "\u0120frequ": 2339,
    "\u0120haem": 27839,
    "\u0120minute": 8427,
    "ifs": 38327,
    "continental": 38035,
    "\u0120Iz": 42133,
    "\u0120Pac": 39097,
    "oldt": 38099,
    "usoleum": 47867,
    "\u0120Rel": 4544,
    "\u0120Barker": 47692,
    "\u0120lot": 2341,
    "\u0120diesel": 16336,
    "\u0120Smaller": 34875,
    "\u0120AZ": 36888,
    "\u0120couldn": 6789,
    "\u0120Collection": 13976,
    "\u0120Marines": 32146,
    "\u0120intellect": 5715,
    "ricula": 18570,
    "\u0120partisans": 48969,
    "\u0120poaching": 30213,
    "require": 38484,
    "\u0120cancerous": 25558,
    "Ak": 46030,
    "\u0120Emotions": 34983,
    "\u0120bitcoin": 31735,
    "\u0120Confucian": 46712,
    "\u0120distressed": 38674,
    "\u0120Cumm": 48575,
    "\u0120produ": 796,
    "\u0120speci": 37960,
    "\u0120subscribe": 24718,
    "atures": 1907,
    "phi": 20388,
    "\u0120Muh": 12778,
    "\u0120teams": 6984,
    "\u0120surroundings": 10882,
    "\u0120Broken": 42493,
    "\u0120methods": 2337,
    "\u0120remembered": 13380,
    "\u0120Alma": 47629,
    "\u0120volcano": 18051,
    "\u0120Armen": 13953,
    "\u0120clone": 30411,
    "\u0120sowing": 33699,
    "\u0120fake": 14451,
    "arium": 10913,
    "\u0120approval": 11175,
    "Planning": 41938,
    "aur": 4227,
    "\u0120sentence": 6330,
    "\u0120ATM": 41154,
    "ellings": 42474,
    "bler": 32768,
    "\u0120passports": 49093,
    "\u0120Ro": 11849,
    "\u0120COPYRIGHT": 43043,
    "\u0120survivors": 12977,
    "\u0120Aurora": 41556,
    "iberian": 31852,
    "\u0120issuing": 26558,
    "\u0120reversal": 30882,
    "\u0120Prince": 12356,
    "conform": 47054,
    "Users": 29200,
    "\u0120borderline": 41202,
    "\u0120Mash": 44824,
    "\u0120flowed": 31671,
    "attered": 11237,
    "\u0120exerts": 42684,
    "\u0120subnet": 39478,
    "creat": 22756,
    "\u0120assemblies": 27896,
    "\u0120calendars": 36229,
    "headers": 16020,
    "\u0120annex": 21966,
    "\u0120constructor": 34449,
    "\u0120defects": 12207,
    "\u0120Accuracy": 37324,
    "\u0120chronology": 36227,
    "\u0120concern": 1982,
    "\u0120pairs": 9180,
    "\u0120visibly": 43430,
    "\u0120\u0120\u0120": 333,
    "flight": 21245,
    "\u0120Images": 16197,
    "\u0120metaphysics": 37110,
    "\u0120polarized": 36831,
    "venile": 8804,
    "\u0120facial": 11202,
    "\u0120unwilling": 24731,
    "\u0120[-": 18744,
    "\u0120founders": 24811,
    "oggles": 31782,
    "\u0120Perspectives": 22498,
    "\u0120Mahayana": 48467,
    "\u0120bilingual": 21396,
    "Quick": 36453,
    "\u0120Patagon": 48127,
    "\u0120Amnesty": 48582,
    "\u0120rapport": 29309,
    "interpre": 28849,
    "Freedom": 40428,
    "ENCES": 48687,
    "\u0120Card": 9567,
    "\u0120epidem": 13296,
    "View": 7972,
    "initialize": 25603,
    "mad": 23157,
    "\u0120Tox": 46537,
    "\u0120mid": 3921,
    "\u0120shows": 2744,
    "\u0120Meals": 47952,
    "\u0120En": 1698,
    "\u0120difference": 3193,
    "\u0120Barr": 36591,
    "Arabic": 44970,
    "bucket": 21948,
    "othermia": 40935,
    "\u0120Dana": 35765,
    "\u0120ROS": 38521,
    "\u0120Compan": 13905,
    "ipped": 5227,
    "\u00d0\u00b0\u00d1\u0124": 31410,
    "ictions": 39257,
    "pad": 16384,
    "\u00d0\u00bd\u00d0\u00b8": 44795,
    "\u0120History": 3760,
    "\u0120Ella": 43291,
    "\u0120Leonardo": 27155,
    "Sometimes": 13866,
    "\u0120Werner": 46386,
    "preprocess": 44773,
    "completed": 41378,
    "carotene": 40827,
    "ronics": 20815,
    "element": 13179,
    "\u0120barbar": 30205,
    "oire": 40493,
    "\u0120doctrines": 24819,
    "\u0120corresponds": 16400,
    "\u0120generals": 30121,
    "\u0120Series": 13123,
    "\u0120intro": 30018,
    "\u0120migraines": 29386,
    "\u0120Battles": 44375,
    "\u0120VOC": 48296,
    "\u0120Research": 2904,
    "British": 22251,
    "\u0120Revenue": 34461,
    "\u00c4\u00b1": 20335,
    "utenberg": 41871,
    "\u0120amateur": 21024,
    "\u0120consequent": 38190,
    "\u0120AM": 10974,
    "\u0120lakh": 45035,
    "icators": 33424,
    "\u0120ancestral": 16918,
    "EN": 2680,
    "\u0120rape": 19231,
    "\u0120bald": 26645,
    "VS": 42103,
    "\u0120known": 1343,
    "\u0120smugg": 28327,
    "\u0120Pok\u00c3\u00a9mon": 39922,
    "\u0120needs": 1923,
    "\u0120handling": 7729,
    "Everyone": 23460,
    "\u0120Jacqu": 46818,
    "\u0120Apollo": 17600,
    "\u0120Handling": 37177,
    "\u0120Sk": 5471,
    "\u0120averaged": 27534,
    "\u0120counselling": 35144,
    "\u0120county": 8347,
    "\u0120ease": 8801,
    "\u0120pile": 16399,
    "\u0120soldering": 42718,
    "Their": 17440,
    "\u0120tours": 18366,
    "\u0120dest": 2434,
    "\u0120Integer": 35299,
    "\u0120contraception": 31696,
    "\u0120computed": 19551,
    "\u0120remitt": 46726,
    "\u0120lumber": 24270,
    "\u0120undist": 31427,
    "\u0120Cock": 36161,
    "\u0120economical": 24075,
    "\u0120travelled": 23112,
    "\u0120whaling": 36258,
    "\u0120wheat": 8893,
    "dic": 29875,
    "\u0120translating": 25436,
    "\u0120readers": 4419,
    "Functional": 47540,
    "Rev": 19440,
    "inker": 37333,
    "\u0120collaboratively": 27443,
    "\u0120Arc": 21271,
    "\u0120Continue": 18136,
    "\u0120wondered": 8679,
    "\u0120Melbourne": 21615,
    "\u0120pp": 4774,
    "\u0120\u00ce": 5664,
    "oun": 1353,
    "\u0120inhab": 6649,
    "\u0120faculties": 31792,
    "brain": 19294,
    "login": 15873,
    "uff": 3343,
    "\u0120Pam": 32333,
    "\u0120worldview": 28395,
    "\u0120femin": 9458,
    "opy": 2218,
    "\u0120worn": 11742,
    "\u0120dumps": 44360,
    "another": 30378,
    "Publication": 25241,
    "elling": 2132,
    "\u0120Wol": 19481,
    "\u0120categories": 6585,
    "\u0120asks": 11421,
    "\u0120haplot": 45378,
    "\u0120ignorant": 27934,
    "\u0120we": 392,
    "NSF": 48257,
    "\u0120...": 4563,
    "\u0120Lesson": 14524,
    "\u0120Motors": 36343,
    "\u0120hope": 3826,
    "\u0120irresponsible": 44250,
    "\u0120oversees": 40915,
    "cp": 15766,
    "\u0120Clinton": 18623,
    "flav": 38756,
    "kef": 31742,
    "\u0120Nursing": 23910,
    "\u0120hostile": 17408,
    "USDA": 37729,
    "\u0120\u00d0\u00bf": 21985,
    "\u0120sages": 48531,
    "\u0120Earn": 40212,
    "lim": 3219,
    "\u0120annotations": 28219,
    "\u0120neurons": 9923,
    "\u0120wasps": 30080,
    "\u0120warning": 8418,
    "ity": 383,
    "aid": 3755,
    "\u0120Vert": 45593,
    "Device": 20739,
    "\u0120relies": 12563,
    "artment": 2708,
    "nearest": 48248,
    "\u0120CNN": 23495,
    "\u0120syndrome": 6489,
    "\u0120warrant": 11823,
    "thought": 32853,
    "\u00e5\u0143\u013a": 43295,
    "server": 10187,
    "\u0120Talking": 31450,
    "\u0120anymore": 13532,
    "converter": 47331,
    "\u0120deprived": 23045,
    "\u0120curcumin": 42510,
    "\u0120mayor": 23667,
    "\u0120mell": 28524,
    "\u0120positioned": 17982,
    "\u0120Goose": 47355,
    "CHA": 42829,
    "\u0120prote": 2640,
    "ETS": 38345,
    "\u0120As": 1032,
    "ographs": 19581,
    "\u0120metaphor": 14795,
    "\u0120supernov": 25807,
    "rieve": 28208,
    "agul": 31989,
    "intercept": 47914,
    "\u010a\u010a\u0120\u0120\u0120\u0120\u0120\u0120\u0120\u0120\u0120\u0120\u0120": 4767,
    "\u0120LEDs": 26050,
    "\u0120Radar": 45618,
    "\u0120adversary": 41241,
    "\u0120upsetting": 45408,
    "\u0120aut": 1023,
    "\u0120highlands": 36196,
    "\u0120HCV": 35181,
    "ECH": 34477,
    "\u0120testimony": 17265,
    "rets": 26466,
    "\u0120crawling": 35354,
    "Suddenly": 43977,
    "\u0120Reb": 38241,
    "\u0120Doctor": 17590,
    "\u0120idols": 38929,
    "\u0120rejecting": 32207,
    "\u0120Comput": 6597,
    "\u0120pauses": 43216,
    "Marie": 43246,
    "aram": 29066,
    "bellum": 34859,
    "\u0120axi": 35482,
    "chant": 28533,
    "pec": 628,
    "hostname": 32225,
    "\u0120Council": 5299,
    "\u010a\u0120": 3805,
    "\u0120digestive": 10422,
    "\u0120disclosure": 22985,
    "anese": 45302,
    "enberg": 26172,
    "\u0120fossilized": 45991,
    "\u0120incorporate": 7965,
    "ropri": 9304,
    "\u0120Agg": 26723,
    "\u0120Enter": 10760,
    "\u0120pung": 44125,
    "\u0120Science": 3191,
    "\u0120rubrics": 45457,
    "\u0120Joel": 35370,
    "\u0120cradle": 40742,
    "\u0120dysfunctional": 39207,
    "\u0120floral": 28013,
    "\u0120feeder": 31049,
    "\u0120psychosis": 34504,
    ".|": 7102,
    "\u0120thin": 5607,
    "\u0120mindset": 16624,
    "\u0120disabled": 12954,
    "\u0120WS": 36378,
    "\u0120predominant": 12700,
    "\u0120undeveloped": 48300,
    "Qual": 48346,
    "\u0120retraction": 48498,
    "\u0120missile": 21682,
    "\u0120compliant": 32744,
    "\u0120lint": 46478,
    "incre": 19445,
    "\u0120Maui": 48326,
    "sville": 38682,
    "\u0120Adventures": 28737,
    "minus": 46248,
    "\u0120pup": 7701,
    "\u0120specialize": 22625,
    "\u0120tem": 1356,
    "now": 612,
    "umbing": 19818,
    "\u0120Augusta": 42317,
    "\u0120Coke": 47072,
    "hall": 29371,
    "\u0120oblig": 7237,
    "\u0120retrieve": 19662,
    "\u0120VR": 17297,
    "tering": 22686,
    "))": 1292,
    "\u0120using": 1015,
    "imp": 10250,
    "\u0120troublesome": 37022,
    "\u0120harassed": 46877,
    "\u0120blend": 12342,
    "\u0120remod": 30335,
    "\u0120Items": 32559,
    "arte": 29565,
    "\u0120decades": 4756,
    "\u0120Sunni": 35625,
    "\u0120public": 1360,
    "``,": 43654,
    "astrous": 24170,
    "Meaning": 42648,
    "\u010d\u010a\u0120\u0120\u0120\u0120\u0120\u0120\u0120\u0120\u0120\u0120\u0120\u0120\u0120\u0120\u0120\u0120\u0120\u0120\u0120\u0120\u0120\u0120\u0120": 21377,
    "\u0120Martinez": 43765,
    "]-": 27707,
    "\u0120dynasties": 39798,
    "effect": 13342,
    "\u0120redness": 25113,
    "\u0120testified": 43255,
    "ometric": 9007,
    "\u0120Harvey": 25497,
    "utsch": 35544,
    "\u0120Theatre": 22660,
    "\u0120consp": 14053,
    "\u0120obst": 5782,
    "\u0120weighed": 24160,
    "\u0120wording": 32778,
    "\u0120reciproc": 27567,
    "\u0120seasoned": 22553,
    "\u0120Apparently": 29711,
    "oarthritis": 22554,
    "uddenly": 17667,
    "itely": 45908,
    "\u0120Thir": 33543,
    "\u0120doorway": 41644,
    "\u0120million": 2215,
    "rov": 19914,
    "twentieth": 43893,
    "\u0120Junction": 48351,
    "Agricult": 34434,
    "vag": 30536,
    "retry": 46660,
    "\u0120Viet": 8131,
    "BLIC": 45581,
    "cret": 3138,
    "\u0120COL": 34579,
    "withstanding": 29838,
    "igating": 13263,
    "\u0120gaz": 38779,
    "aba": 20534,
    "Pass": 17911,
    "we": 677,
    "\u00c4\u0123n": 30245,
    "\u0120puppets": 38452,
    "anian": 39085,
    "\u0120Poison": 32016,
    "\u0120diplomats": 40026,
    "worthiness": 34900,
    "ician": 5792,
    "akk": 37998,
    "Miss": 21361,
    "unga": 44236,
    "dns": 44819,
    "\u0120Representation": 28427,
    "Inc": 22318,
    "\u0120caf": 20879,
    "retch": 30250,
    "\u0120favored": 20476,
    "\u0120granted": 8722,
    "\u0120lept": 31856,
    "\u0120meadow": 32350,
    "\u0120Lewis": 11968,
    "\u0120revelations": 34034,
    "\u0120John": 2322,
    "feel": 34858,
    "\u0120Bengali": 40336,
    "\u0120flowing": 12819,
    "\u0120sequence": 5972,
    "oen": 13846,
    "\u0120bubbles": 17776,
    "\u0120germ": 11502,
    "\u0120nucleot": 24826,
    "\u0120'\"": 35605,
    "together": 35935,
    "\u0120futuristic": 37048,
    "\u0120intermedi": 11275,
    "\u0120catchment": 36340,
    "\u0120polythe": 44601,
    "\u0120Highlands": 39826,
    "\u0120subgroups": 37449,
    "\u0120fulf": 11921,
    "\u0120fung": 13416,
    "X": 72,
    "igmund": 46688,
    "\u0120Simon": 15399,
    "\u0120interfere": 14527,
    "\u0120Narrow": 48536,
    "assion": 6828,
    "aclass": 27049,
    "scribe": 21213,
    "\u0120Effectiveness": 45741,
    ")):": 10290,
    "simple": 20916,
    "\u00e7\u0132\u0128": 45201,
    "\u0120generously": 35039,
    "\u0120bould": 38084,
    "ensity": 3883,
    "\u0120hitherto": 37733,
    "\u0120sen": 5896,
    "\u0120coauthor": 45697,
    "\u0120imitation": 30188,
    "\u0120artific": 26944,
    "\u0120Vegan": 48177,
    "oating": 32542,
    "Above": 32393,
    "]:": 7036,
    "\u0120Colony": 29434,
    "\u0120modernist": 38471,
    "NULL": 35297,
    "article": 15459,
    "jas": 44941,
    "\u0120Flem": 41471,
    "\u0120inscriptions": 26774,
    "patrick": 44013,
    "Instruction": 25464,
    "ayed": 31907,
    "ferably": 43259,
    "\u0120Indonesia": 12890,
    "unciation": 13777,
    "\u0120ect": 29965,
    "\u0120listings": 39012,
    "\")),": 36198,
    "\u0120delights": 41691,
    "ailed": 7163,
    "\u0120rainwater": 25335,
    "\u0120telephone": 13698,
    "\u0120further": 2030,
    ")),": 9614,
    "\u0120GT": 37780,
    "ionine": 48029,
    "\u0120Week": 11616,
    "\u0120Det": 6440,
    "\u0120Kim": 13440,
    "ropriate": 11106,
    "ither": 1878,
    "\u0120rated": 18361,
    "\u0120Thermal": 31309,
    "Din": 40949,
    "arb": 16354,
    "\u0120IEP": 35056,
    "\u0120apt": 18077,
    "\u0120initiates": 39907,
    "\u0120soph": 8453,
    "\u0120scholar": 14461,
    "\u0120grill": 35381,
    "tx": 9635,
    "\u0120Cuc": 47584,
    "\u0120Windsor": 39421,
    "\u0120investig": 3045,
    "Okay": 39122,
    "\u0120out": 578,
    "cv": 15798,
    "\u0120visiting": 8896,
    "Date": 10912,
    "\u0120covenant": 20645,
    "stad": 25689,
    "\u0120renew": 5357,
    "\u0120vows": 43155,
    "\u0120RE": 12710,
    "kin": 7109,
    "\u0120McC": 11704,
    "six": 19619,
    "medical": 31119,
    "\u0120Acid": 22098,
    "qual": 4632,
    "\u0120Boot": 36747,
    "\u0120Must": 19811,
    "\u0120Terra": 35910,
    "\u0120Tuple": 25095,
    "\u0120elim": 4734,
    "\u0120fostered": 26785,
    "rieved": 4580,
    "\u0120incumbent": 37806,
    "\u0120photographs": 9432,
    "\u0120drunk": 25386,
    "DM": 19175,
    "oteric": 33032,
    "\u0120serialize": 33795,
    "\u00d1\u0123\u00d1\u0124": 24674,
    "\u0120Discover": 23528,
    "currently": 37105,
    "\u0120ja": 48868,
    "\"/>": 48159,
    "Wave": 37819,
    "perature": 12226,
    "renal": 15670,
    "\u0120skeletal": 20762,
    "\u0120vertically": 22092,
    "\u0120JO": 33910,
    "cerpt": 39904,
    "\u0120Beginners": 48565,
    "\u0120polyunsaturated": 40180,
    "\u0120proletariat": 42841,
    "Helping": 48776,
    "\u0120jargon": 31526,
    "\u0120Become": 33951,
    "\u0120military": 3385,
    ")": 25,
    "?)": 14199,
    "batch": 7707,
    "fied": 31886,
    "urst": 29660,
    "\u0120Percy": 39229,
    "\u0120broom": 48355,
    "\u0120chef": 29012,
    "\u0120lure": 35945,
    "\u0120Sebastian": 42730,
    "\u0120prophylaxis": 44080,
    "alloween": 21942,
    "\u0120fortified": 22559,
    "\u0120reinforcement": 19387,
    "\u0120shr": 16934,
    "Contrary": 42393,
    "\u0120Disc": 6331,
    "omas": 4815,
    "\u0120Param": 11658,
    "*": 26,
    "Using": 9387,
    "igmatic": 30385,
    "gypt": 4615,
    "\u0120orthodontic": 42653,
    "\u0120unl": 36505,
    "\u0120stake": 7075,
    "\u0120extrater": 29683,
    "\u0120Tut": 20603,
    "\u0120Protestants": 31454,
    "\u0120Common": 6047,
    "\u0120strip": 13643,
    "pig": 45034,
    "yal": 8254,
    "\u0120brach": 49073,
    "\u00c5\u0124": 25954,
    "\u0120Twitter": 11592,
    "\u0120researching": 14784,
    "\u0120Dere": 41446,
    "auer": 20304,
    "ville": 5559,
    "\u00c2\u00b7": 8547,
    "\u0120Powers": 26283,
    "\u0120telephones": 45523,
    "\u0120veterinarians": 33573,
    "ater": 571,
    "rs": 2833,
    "\u0120Correspond": 35329,
    "\u0120Established": 38004,
    "\u0120Paulo": 36619,
    "\u0120Aut": 4490,
    "\u0120disposition": 27044,
    "acies": 9092,
    "\u0120mouth": 4388,
    "\u0120sounds": 4598,
    "traditional": 25639,
    "Figure": 7469,
    "\u00d0\u00b2": 16464,
    "\u0120Mastery": 48258,
    "\u0120patented": 26964,
    "\u0120condemnation": 38964,
    "\u0120borrower": 40553,
    "\u0120Futures": 48597,
    "\u0120deposits": 11569,
    "\u0120Scale": 20060,
    "icip": 4223,
    "\u0120awaiting": 28121,
    "entin": 43372,
    "\u0120Nobel": 14504,
    "\u0120burdens": 23212,
    "\u0120axes": 16418,
    "\u0120FIT": 36537,
    "\u0120Utilize": 25385,
    "\u0120co": 857,
    "\u0120Israelis": 41913,
    "\u0120Mad": 7473,
    "\u0120Nav": 5722,
    "\u0120Pete": 39736,
    "\u0120Television": 32048,
    "ibling": 19254,
    "\u0120clogged": 36397,
    "\u0120fitness": 9847,
    "\u0120Cognitive": 18062,
    "\u0120Imagination": 44926,
    "\u0120flagship": 38773,
    "England": 47063,
    "lines": 5110,
    "ols": 9950,
    "pix": 18449,
    "ancellor": 26075,
    "\u00e5\u012b": 37992,
    "\u0120HISTORY": 48534,
    "\u0120defence": 17745,
    "\u0120prevail": 30864,
    "\u0120Carolina": 8147,
    "iquid": 22124,
    "iander": 42455,
    "\u0120magnitude": 10684,
    "\u0120exon": 44214,
    "\u0120fol": 989,
    "\u0120Conduct": 21412,
    "\u0120mortar": 27238,
    "\u0120pi": 16916,
    "\u0120promoters": 47518,
    "\u0120retention": 13315,
    "\u0120wishes": 15818,
    "\u0120Turk": 11071,
    "\u0120Sovereign": 49120,
    "\u0120intrusive": 38216,
    "\u0120eld": 6929,
    "clay": 45673,
    "\u0120Directorate": 40487,
    "rasing": 43601,
    "intendo": 39265,
    "\u0120pressure": 2456,
    "sectional": 28566,
    "atro": 47923,
    "\u0120ancest": 5996,
    "\u0120slicing": 36875,
    "Wednesday": 36314,
    "\u0120methodologies": 17453,
    "\u0120neuropsych": 33762,
    "cox": 40718,
    "uous": 6065,
    "odynamic": 20234,
    "\u0120Nigeria": 15505,
    "\u0120bang": 33734,
    "\u0120forced": 5657,
    "maybe": 27066,
    "\u0120essentially": 8009,
    "\u0120Gle": 43075,
    "written": 14934,
    "\u0120Edwin": 33371,
    "\u0120Boards": 41336,
    "Simply": 36823,
    "\u0120Hoffman": 44357,
    "\u0120modulation": 25967,
    "\u00d9\u0128": 18223,
    "Brown": 26350,
    "\u0120Hol": 3970,
    "ceph": 34512,
    "\u0120branching": 32456,
    "\u0120registering": 36873,
    "\u0120methylation": 32081,
    "\u0120treatable": 35254,
    "psych": 17044,
    "\u0120casualties": 20073,
    "\u00e4\u00b8\u012c": 40940,
    "\u0120Solution": 19857,
    "\u0120Leveraging": 30270,
    "\u0120neut": 6025,
    "ascus": 33724,
    "Ni": 41980,
    "\u0120Homer": 24982,
    "\u0120Frag": 30159,
    "\u0120secular": 14068,
    "\u0120theirs": 26718,
    "ethyl": 15280,
    "\u010a\u0120\u0120\u0120\u0120\u0120\u0120\u0120": 448,
    "gg": 1057,
    "func": 10005,
    "\u0120mile": 12264,
    "\u0120phrasing": 44903,
    "\u0120subtle": 9964,
    "Factory": 22636,
    "\u0120arrests": 36022,
    "\u0120vic": 15501,
    "\u0120\u00ce\u00bc": 17820,
    "\u0120Le": 2250,
    "sg": 8467,
    "\u0120cruising": 47679,
    "bird": 14833,
    "blocking": 46136,
    "Controller": 32568,
    "naire": 38504,
    "panish": 24143,
    "\u0120Amidst": 34530,
    "weh": 28479,
    "\u0120inp": 43670,
    "\u0120offs": 11851,
    "culosis": 16881,
    "\u0120impair": 10089,
    "\u0120refrigerators": 45350,
    "\u0120speculated": 35431,
    "\u0120sparrow": 40011,
    "\u0120\\\"": 34101,
    "backward": 33916,
    "\u0120Lipp": 45450,
    "\u0120Fortune": 41904,
    "\u0120gardener": 32584,
    "\u0120prod": 34049,
    "})": 8148,
    "\u0120photographer": 20847,
    "graphs": 38297,
    "\u0120quantified": 38344,
    "\u0120homogeneous": 30955,
    "\u0120Insp": 18215,
    "CAS": 25629,
    "\u0120Salt": 16239,
    "\u0120hasn": 14636,
    "zac": 44347,
    "hausen": 46508,
    "bf": 20104,
    "rens": 41766,
    "\u0120tempted": 30390,
    "\u0120commissions": 31555,
    "\u0120brewed": 47166,
    "\u0120Boundary": 44842,
    "your": 15006,
    "\u0120Fork": 37193,
    "\u0120UCS": 37745,
    "\u0120epile": 18425,
    "\u0120pickup": 40619,
    "\u0120discerning": 39983,
    "imating": 30687,
    "\u0120Markets": 34321,
    "\u0120affiliations": 37228,
    "\u0120bisexual": 26005,
    "safety": 39018,
    "ICAL": 21673,
    "\u0120refresh": 24325,
    "\u0120profitable": 19361,
    "util": 13695,
    "\u0120Impact": 10414,
    "\u0120Seneca": 39401,
    "\u0120Histories": 45898,
    "\u0120eggs": 5246,
    "iwi": 34528,
    "\u0120Kem": 38238,
    "\">": 15889,
    "tif": 48933,
    "\u0120Teresa": 39329,
    "\u0120Tom": 8581,
    "\u0120Lat": 10966,
    "\u0120aboard": 16717,
    "uously": 26353,
    "\u0120altitudes": 29326,
    "\u0120classified": 9827,
    "\u0120earth": 3103,
    "USE": 23134,
    "\u0120helping": 4307,
    "\u0120opposite": 7011,
    "\u0120reader": 6291,
    "cls": 11191,
    "LY": 18899,
    "\u0120Degree": 30368,
    "\u0120area": 1557,
    "verty": 5801,
    "\u0120Hadrian": 48839,
    "\u0120cared": 22650,
    "\u0120Multip": 39403,
    "\u0120exp": 921,
    "notify": 41436,
    "\u0120seafood": 17362,
    "\u0120socio": 13375,
    "ometry": 7096,
    "Semitic": 46257,
    "ander": 5440,
    "Ns": 28693,
    "blank": 18847,
    "xual": 12655,
    "\u00e2\u012a\u0134": 14022,
    "\u0120contamination": 11084,
    "\u0120Statements": 42066,
    "\u0120indifference": 37530,
    "\u0120Concerns": 36052,
    "Que": 19623,
    "\u0120insulating": 32884,
    "\u0120creatures": 6734,
    "aeda": 43527,
    "rief": 4196,
    "\u0120dosage": 21103,
    "\u0120flamm": 30134,
    "\u0120goddess": 15059,
    "\u0120markedly": 31967,
    "\u0120recalling": 39029,
    "\u0120pragmatic": 30584,
    "\u0120metall": 15622,
    "\u0120horseback": 36268,
    "\u0120Miz": 44537,
    "\u0120researchers": 2293,
    "\u0120gendered": 34777,
    "max": 3831,
    "Exercise": 27135,
    "\u0120shocks": 28615,
    "\u0120Objects": 28655,
    "\u0120asexual": 44628,
    "\u0120contemplation": 30209,
    "NS": 8965,
    "\u0120Monetary": 36632,
    "\u0120Towards": 28825,
    "Lincoln": 42470,
    "\u0120police": 5997,
    "\u0120prejudices": 26715,
    "\u0120tube": 8223,
    "\u0120incident": 9208,
    "\u0120ebook": 40479,
    "\u0120gardens": 9798,
    "Eventually": 33240,
    "riages": 16162,
    "hesia": 16053,
    "syn": 19260,
    "urious": 24081,
    "\u0120Celts": 44122,
    "\u0120Pfizer": 42929,
    "\u0120utopian": 42390,
    "\u0120Smoking": 26698,
    "father": 13069,
    "\u0120Syst": 46919,
    "\u0120representing": 7834,
    "\u00e7\u00a7": 37145,
    "vari": 9735,
    "\u00cf\u012b": 15759,
    "\u0120forecasting": 23003,
    "Oral": 40519,
    "\u0120Choices": 35413,
    "\u0120sweetener": 41698,
    "\u0120Dip": 40240,
    "par": 1095,
    "\u0120underlying": 5750,
    "roduction": 3614,
    "Skin": 35953,
    "\u0120Lord": 5151,
    "\u0120Tir": 44482,
    "\u0120gastrointestinal": 16353,
    "\u0120reputable": 20395,
    "\u0120doctors": 6093,
    "\u0120interdisciplinary": 16719,
    "\u00f3": 188,
    "\u0120frontline": 46704,
    "oty": 14813,
    "loving": 37991,
    "mar": 3298,
    "\u0120GS": 36698,
    "utt": 18201,
    "rooted": 38557,
    "\u0120accelerates": 40318,
    "\u0120aura": 44380,
    "\u0120lon": 9835,
    "Experts": 31340,
    "\u0120RSV": 42709,
    "\u0120devoid": 26486,
    "\u0120dissect": 26778,
    "\u0120Walton": 49075,
    "\u0120Troy": 28506,
    "Side": 31310,
    "\u0120Deutsch": 45365,
    "\u0120observing": 10654,
    "\u0120pharmac": 13782,
    "\u0120neo": 26058,
    "\u0120twins": 22734,
    "\u0120sustained": 11787,
    "__(": 3762,
    "\u0120Hancock": 41933,
    "\u0120nas": 13075,
    "\u0120judiciary": 33703,
    "width": 6930,
    "\u0120rhythms": 17743,
    "plants": 17285,
    "\u0120politician": 23694,
    "ithmetic": 17516,
    "orrh": 16210,
    "\u0120Jose": 6665,
    "\u0120nice": 9239,
    "\u0120Implications": 21888,
    ".):": 47618,
    "\u0120manifested": 26908,
    "\u0120cyclones": 38280,
    "\u0120spawn": 17727,
    "\u0120connector": 26192,
    "\u0120toes": 17287,
    "E": 53,
    "\u0120tort": 10710,
    "original": 10119,
    "oblastoma": 42352,
    "\u0120Frontier": 34111,
    "\u0120restorative": 27202,
    "acters": 3663,
    "\u0120rock": 4022,
    "\u0120Pocket": 48052,
    "\u0120inauguration": 43505,
    "\u0120picks": 27482,
    "/-": 29256,
    "\u010a\u0120\u0120\u0120\u0120\u0120\u0120": 15537,
    "\u0120Ayurveda": 34456,
    "\u0120Germ": 2278,
    "gling": 39394,
    "\u0120cosmology": 32922,
    "\u0120mistreatment": 47936,
    "\u0120INT": 31174,
    "\u0120popularity": 9338,
    "\u0120profession": 4140,
    "\u0120scarcity": 20701,
    "assertFalse": 33545,
    "\u0120spared": 35230,
    "\u0120Projects": 21227,
    "\u0120unknown": 6552,
    "kee": 22137,
    "\u0120Vs": 42183,
    "\u0120abolish": 40945,
    "Enh": 39079,
    "disease": 35506,
    "\u0120Doc": 10377,
    "\u0120Netherlands": 12256,
    "\u0120slower": 14020,
    "\u0120<<": 22646,
    "\u0120glove": 37917,
    "dw": 44312,
    "\u0120inspirational": 36345,
    "\u0120ideas": 2821,
    "\u0120metastatic": 40461,
    "\u0120Hyp": 18194,
    "\u0120normalized": 27882,
    "\u0120vivo": 25704,
    "\u0120Greco": 43439,
    "iet": 2610,
    "isational": 40238,
    "Dig": 16361,
    "atim": 46572,
    "psum": 38240,
    "put": 1078,
    "\u010a\u0109\u0109\u010a\u0109": 38031,
    "\u0120Narrative": 29620,
    "\u0120backs": 17956,
    "\u0120tal": 5252,
    "\u0120everything": 3117,
    "abad": 21381,
    "kor": 39646,
    "obalt": 30155,
    "\u0120chew": 21976,
    "masters": 43865,
    "\u0120Bronze": 24655,
    "\u0120Serb": 26029,
    "\u0120blog": 5862,
    "]',": 37340,
    "\u0120mouse": 9444,
    "\u0120opinions": 8428,
    "starting": 35043,
    "\u0120Cult": 5498,
    "\u0120Parts": 28371,
    "\u0120impression": 11753,
    "\u0120detectable": 31517,
    "\u0120intellig": 4204,
    "\u0120Gab": 17096,
    "ateg": 1322,
    "powered": 14519,
    "Ham": 29564,
    "throp": 6624,
    "PhD": 44290,
    "\u0120estab": 1975,
    "Solution": 37500,
    "inct": 3126,
    "Exactly": 45785,
    "atto": 26755,
    "igrams": 27200,
    "\u0120Vietnamese": 20337,
    "employ": 37846,
    "overflow": 38423,
    "\u0120attitude": 9459,
    "ancy": 3270,
    "\u0120URLs": 39773,
    "\u0120Help": 9915,
    "\u0120retract": 40213,
    "ipel": 24009,
    "\u0120jer": 31415,
    "\u0120Shield": 35557,
    "Foreign": 19822,
    "\u0120Frankenstein": 43290,
    "\u0120necessarily": 6834,
    "'re": 2316,
    "\u0120relieved": 27650,
    "\u0120Organic": 18972,
    "\u0120Produce": 43752,
    "\u0120conical": 42239,
    "\u0120un": 551,
    "anthin": 45009,
    "\u0120rehearsal": 46802,
    "\u0120Barrett": 36450,
    "\u0120gloss": 18258,
    "ista": 17261,
    "\u0120integrates": 30823,
    "\u0120taxing": 44402,
    "\u0120Teach": 18667,
    "\u0120uncontrollable": 44331,
    "ampl": 6278,
    "brother": 41820,
    "ICES": 32743,
    "una": 9106,
    "\u0120Thomson": 32635,
    "\u0120throttle": 46613,
    "bush": 45463,
    "Sal": 20052,
    "mer": 763,
    "\u0120contest": 17246,
    "warn": 22149,
    "period": 17439,
    "\u0120happens": 4283,
    "lambda": 10640,
    "\u0120witches": 32356,
    "Prior": 23885,
    "\u0120Coping": 42558,
    "\u0120Term": 15211,
    "Track": 35435,
    "\u0120zodiac": 39217,
    ")**": 14353,
    "accur": 14222,
    "\u0120Operation": 18073,
    "\u0120column": 4556,
    "\u0120Neuroscience": 26958,
    "\u0120competitive": 8781,
    "uties": 33320,
    "\u0120once": 2268,
    "\u0120ti": 31659,
    "\u0120sized": 20498,
    "\u0120translator": 31077,
    "\u0120portability": 48791,
    "\u0120Chlor": 28884,
    "\u0120talks": 11748,
    "Silver": 45994,
    "ep": 534,
    "ostasis": 27743,
    "\u0120BLM": 40891,
    "\u0120Bake": 47393,
    "\u0120Heinrich": 35892,
    "\u0120Philippine": 27479,
    "\u0120continents": 17765,
    "\u0120Time": 5885,
    "\u0120persuaded": 30293,
    "\u0120Cornelius": 48692,
    "\u0120yard": 13366,
    "luent": 22407,
    "\u0120contours": 29754,
    "\u0120Fle": 16575,
    "ov": 749,
    "\u0120Vanderbilt": 42550,
    "ieval": 7919,
    "hour": 12137,
    "\u0120ventil": 38596,
    "rien": 28409,
    "\u0120Lah": 36046,
    "aped": 8877,
    "\u0120fluids": 12201,
    "\u0120symbolizes": 28659,
    "span": 19674,
    "\u0120Geo": 31437,
    "antha": 37198,
    "eprint": 16988,
    "ATIONS": 28074,
    "ifers": 22666,
    "\u0120Dolph": 38606,
    "\u0120PARTIC": 39884,
    "NAME": 6167,
    "\u0120Bread": 32329,
    "acy": 1809,
    "\u0120Alger": 26816,
    "\u0120Eng": 1471,
    "\u0120Transmission": 31613,
    "\u0120Wing": 26637,
    "\u0120aroused": 41191,
    "\u0120feared": 18295,
    "\u0120gulf": 42374,
    "Mc": 16294,
    "pretrained": 40081,
    "\u0120petition": 17152,
    "nge": 27651,
    "\u0120Avoiding": 39796,
    "\u0120rises": 13685,
    "hibition": 21142,
    "\u0120rides": 25427,
    "\u0120dishes": 8806,
    "\u0120timed": 22520,
    "orus": 11467,
    "\u0120dictionary": 9125,
    "\u0120Africa": 3518,
    "Loader": 25626,
    "olesc": 7946,
    "\u0120NK": 38510,
    "\u0120Scott": 7850,
    "\u0120adjustment": 16501,
    "\u0120ferry": 31936,
    ".',": 24650,
    "\u0120Pharisees": 45262,
    "actor": 19781,
    "nz": 40798,
    "thur": 10993,
    "\u0120mills": 20257,
    "\u0120March": 3903,
    "\u0120western": 6378,
    "wrong": 34852,
    "\u0120dolphin": 31996,
    "wich": 14365,
    "aphrag": 22362,
    "\u0120configure": 24095,
    "\u0120Diane": 44571,
    "arettes": 13927,
    "ipers": 41608,
    "\u0120Choosing": 23638,
    "Abstract": 22560,
    "\u00e4\u00b8": 7906,
    "\u0120drinks": 9714,
    "\u0120=": 446,
    "itate": 9775,
    "\u0120Patterson": 39609,
    "\u0120Synt": 19601,
    "ourse": 6516,
    "\u0120Hampshire": 21489,
    "Record": 24664,
    "\u0120keeps": 8211,
    "\u0120massage": 18995,
    "\u0120skirts": 45951,
    "\u0120synov": 48142,
    "\u0120\u00d0\u00b7": 43414,
    "\u0120substituting": 41877,
    "Press": 18177,
    "TSD": 14834,
    "eric": 11550,
    "\u0120contribute": 3578,
    "SIG": 38092,
    "\u0120dates": 8151,
    "\u0120disgu": 22607,
    "playing": 26517,
    "\u0120spectra": 26611,
    "\u0120speeds": 10870,
    "giving": 13619,
    "\u0120tougher": 35802,
    "\u0120hurry": 35932,
    "\u0120yarn": 19126,
    "key": 2393,
    "urance": 4589,
    "\u0120crackers": 37817,
    "\u0120Corn": 10503,
    "\u0120revenge": 23414,
    "\u0120\"\",": 27767,
    "\u0120Sport": 25937,
    "\u0120surpassed": 35248,
    "\u0120Rosetta": 45078,
    "Apr": 41966,
    "\u0120D": 422,
    "\u0120curs": 23138,
    "\\": 76,
    "interface": 23167,
    "\u0120Logan": 38012,
    "\u0120nost": 19280,
    "\u0120withstand": 18005,
    "ringing": 32943,
    "\u0120CS": 10471,
    "\u0120rubble": 39102,
    "\u0120expedition": 12557,
    "stery": 23780,
    "\u0120win": 4726,
    "doing": 29246,
    "\u0120Doll": 41421,
    "\u0120prominently": 28248,
    "ELS": 37692,
    "\u0120vor": 44749,
    "ucha": 48851,
    "\u010a\u0120\u0120\u0120\u0120\u0120\u0120\u0120\u0120\u0120\u0120\u0120\u0120\u0120\u0120\u0120\u0120\u0120\u0120\u0120\u0120\u0120\u0120\u0120\u0120\u0120\u0120\u0120\u0120": 16871,
    "\u0120Fighter": 48197,
    "\u0120Maps": 22783,
    "\u0120\u00d0\u00b4": 33427,
    "\u0120Associations": 45971,
    "\u0120Center": 3644,
    "irs": 10533,
    "\u0120masking": 33696,
    "\u0120alluvial": 47376,
    "unes": 14992,
    ",:]": 43181,
    "PDF": 12283,
    "otropic": 34797,
    "\u0120Clair": 47744,
    "\u0120Monastery": 39425,
    "\u0120moose": 34380,
    "Selection": 24954,
    "encoded": 35572,
    "over": 1400,
    "\u0120chose": 8984,
    "rich": 5130,
    "\u0120gour": 34459,
    "\u0120Peruvian": 34206,
    "\u0120Reagan": 24565,
    "\u0120imposition": 45286,
    "\u0120kiln": 34813,
    "\u0120rounding": 42186,
    "\u0120depth": 5856,
    "\u0120tug": 41919,
    "called": 6900,
    "relationship": 36861,
    "PORT": 21312,
    "\u0120adhes": 14415,
    "\u0120approaches": 4485,
    "\u0120addition": 1706,
    "harvest": 44814,
    "\u0120Mol": 18989,
    "\u0120atrophy": 36429,
    "mt": 13059,
    "\u0120deterrence": 46958,
    "\u0120hawk": 41038,
    "\u0120mascul": 18773,
    "tics": 10958,
    "\u0120Particularly": 36560,
    "\u0120uncertainty": 10443,
    "\u0120averaging": 32666,
    "hering": 19383,
    "\u0120nourishment": 29633,
    "\u010a\u0120\u0120\u0120\u0120\u0120\u0120\u0120\u0120\u0120\u0120": 11259,
    "\u0120Mount": 5509,
    "\u0120verify": 12198,
    "\u0120seawater": 26931,
    "\u0120bar": 2753,
    "\u0120canvas": 16495,
    "azer": 47032,
    "ifts": 22401,
    "\u0120environmental": 2546,
    "hash": 14307,
    "hest": 4134,
    "\u0120biology": 7505,
    "\u0120exile": 20344,
    "\u0120SF": 29611,
    "\u0120goddesses": 33824,
    "\u0120losing": 8878,
    "biased": 30104,
    "\u0120Guest": 44115,
    "\u0120activation": 11221,
    "\u0120low": 1642,
    "\u0120carnivores": 38429,
    "\u0120casser": 48802,
    "\u0120parenting": 18286,
    "\u0120paste": 14467,
    "ingo": 30642,
    "aby": 17853,
    "base": 6822,
    "\u0120Fellows": 29030,
    "screen": 11549,
    "\u0120activates": 31423,
    "Lean": 41815,
    "\u0120traps": 18230,
    "\u0120downloadable": 40447,
    "\u0120Controls": 40300,
    "\u0120endothelial": 34147,
    "\u0120pathogenesis": 34381,
    "\u0120reached": 5388,
    "\u0120regards": 15472,
    "tv": 41058,
    "\u0120falls": 8227,
    "\u0120Republican": 13754,
    "Images": 26311,
    "hester": 13968,
    "olybden": 45570,
    "/\\": 45665,
    "illa": 7712,
    "\u0120dew": 34886,
    "\u0120framew": 4904,
    "\u0120immutable": 44771,
    "atility": 16058,
    "\u0120enhance": 4695,
    "GAN": 39800,
    "ipa": 44437,
    "\u0120sociopolitical": 45505,
    "\u0120mar": 1831,
    "html": 5699,
    "controller": 20711,
    "\u0120avoc": 20061,
    "ann": 1682,
    "\u0120Mom": 19965,
    "\u0120ITS": 46750,
    "\u0120Nash": 25735,
    "ione": 18697,
    "\u0120excuses": 42065,
    "ressed": 4908,
    "orthern": 3944,
    "\u0120tram": 31059,
    "\u0120Surveillance": 31157,
    "\u0120exquisite": 28418,
    "\u00c3\u00b6m": 45682,
    "\u00e0\u00b8\u00a3": 44701,
    "Funding": 45923,
    "ptics": 32179,
    "\u0120Nursery": 45687,
    "\u0120prescribe": 20519,
    "\u0120sensation": 14634,
    "\u0120satire": 27226,
    "last": 5113,
    "\u0120absurdity": 45277,
    "\u0120honorary": 40084,
    "\u0120Corporation": 13772,
    "\u0120JH": 43283,
    "\u0120Malcolm": 27245,
    "terious": 42375,
    "\u0120said": 1137,
    "approx": 22046,
    "\u0120Nicholas": 19545,
    "\u0120\"\"": 13824,
    "anah": 48959,
    "AddField": 47340,
    "\u0120Encryption": 48733,
    "\u0120hobbies": 19829,
    "Commercial": 36726,
    "fastq": 36913,
    "dp": 24901,
    "ioxid": 9074,
    "ono": 46277,
    "\u0120NPS": 46619,
    "\u0120Circulation": 42991,
    "\u0120ration": 30884,
    "\u0120insects": 7027,
    "\u0120bean": 20597,
    "\u0120diagnosed": 7673,
    "Fred": 37922,
    "Exc": 32223,
    "\u0120Chip": 37824,
    "\u0120Hand": 8411,
    "Random": 25838,
    "arding": 9386,
    "berspace": 37062,
    "celled": 46301,
    "lon": 13488,
    "tiny": 42088,
    "\u0120Instance": 25516,
    "\u0120Pap": 13438,
    "Chicago": 37052,
    "aic": 18665,
    "ospace": 19850,
    "\u0120agencies": 6547,
    "\u0120aligns": 24578,
    "\u0120crab": 24541,
    "usa": 23005,
    "ivate": 9307,
    "\u0120beneficial": 6534,
    "\u0120contingency": 34508,
    "\u0120decolon": 26895,
    "\u0120diameter": 8805,
    "arner": 26836,
    "\u0120disposs": 44565,
    "\u0120endomet": 25845,
    "\u0120ancients": 46903,
    "\u0120Something": 23368,
    "\u0120expr": 33043,
    "vir": 31241,
    "\u0120Matt": 21169,
    "\u0120Dash": 39924,
    "\u0120expectation": 19016,
    "\u00c3\u00a1n": 17864,
    "\u0120protoz": 43699,
    "\u0120Cognition": 45305,
    "\u0120rename": 41419,
    ".),": 11165,
    "lishing": 10399,
    "\u0120taller": 26787,
    "\u0120tile": 19716,
    "\u0120font": 11713,
    "\u0120zoo": 21365,
    "\u0120nuance": 42663,
    "\u0120V": 717,
    "\u0120DA": 20400,
    "\u0120electrode": 22307,
    "iets": 27912,
    "oria": 17090,
    "purple": 47078,
    "\u0120dissol": 10432,
    "\u0120imagery": 11195,
    "\u0120naive": 37199,
    "riosis": 35568,
    "\u0120gen": 759,
    "\u0120gives": 3894,
    "\u0120aspects": 3260,
    "@@": 41407,
    "\u0120inspected": 33819,
    "\u0120heavily": 7100,
    "\u0120categor": 11767,
    "\u0120DW": 41885,
    "criptions": 17909,
    "Scale": 27412,
    "\u0120Surveys": 40038,
    "\u0120diph": 39836,
    "\u0120clears": 45738,
    "addy": 26462,
    "idated": 16856,
    "neath": 15773,
    "\u0120Java": 11295,
    "\u0120incarn": 41583,
    "SK": 32457,
    "\u0120integration": 7657,
    "\u0120mira": 12343,
    "GET": 15081,
    "brew": 46721,
    "liquid": 40950,
    "Static": 46868,
    "names": 6464,
    "filepath": 25081,
    "pling": 14109,
    "\u0120alleviate": 15306,
    "\u0120emotional": 4122,
    "wind": 8251,
    "SD": 7404,
    "\u00a9": 119,
    "\u0120Neut": 35217,
    "\u0120luxurious": 31061,
    "\u0120vanishing": 44431,
    "\u0120sher": 33186,
    "\u0120capsule": 20457,
    "reme": 4024,
    "\u0120tremors": 39516,
    "\u0120attrs": 33829,
    "\u0120entertained": 33726,
    "\u0120scrutiny": 20883,
    "heated": 40504,
    "\u0120telling": 8932,
    "\u0120trem": 10276,
    "\u0120surface": 2376,
    "\u0120Andrews": 31981,
    "\u0120internally": 21451,
    "olen": 16548,
    "\u0120reveal": 7363,
    "arna": 44269,
    "\u0120promoter": 36609,
    "league": 43236,
    "\u0120Competition": 29435,
    "\u0120unmanned": 32774,
    "\u0120benchmark": 26211,
    "\u0120vulnerabilities": 18363,
    "\u0120Interior": 22474,
    "\u0120Asset": 43520,
    "\u0120cru": 2653,
    "Marx": 44447,
    "\u0120nicotine": 19206,
    "\u0120Pinterest": 41746,
    "\u0120speaker": 10831,
    "\u0120weathering": 34568,
    "Comb": 25976,
    "tokenizer": 42766,
    "Ok": 24487,
    "calcul": 21870,
    "umbo": 45448,
    "arma": 13025,
    "\u0120Sard": 33377,
    "\u0120Nations": 6950,
    "\u0120discoloration": 36003,
    "\u0120explorations": 28085,
    "\u0120trainers": 29939,
    "umb": 3019,
    "TB": 29626,
    "\u0120Geographical": 40500,
    "counter": 13189,
    "\u0120\u0120": 256,
    "\u0120familial": 21659,
    "\u0120deletion": 31311,
    "\u0120animals": 2355,
    "\u0120attributed": 10866,
    "\u0120makers": 13538,
    "\u0120SB": 30538,
    "vm": 16323,
    "\u0120conduct": 2662,
    "\u0120Gabriel": 26971,
    "frac": 18169,
    "\u0120holding": 6961,
    "rax": 30356,
    "uss": 1131,
    "azz": 9833,
    "\u0120ate": 15563,
    "Technology": 25974,
    "\u0120establish": 3348,
    "\u0120normalization": 32124,
    "\u0120brightness": 19050,
    "\u0120Haj": 37980,
    "\u0120suff": 2725,
    "\u0120AB": 17683,
    "\u00e6\u0130\u00a5": 46842,
    "\u0120graves": 23163,
    "\u0120unless": 6365,
    "\u0120vulner": 4986,
    "\u0120appealing": 14110,
    "\u0120Boyd": 41007,
    "\u0120Electro": 39360,
    "\u0120happenings": 47772,
    "\u0120highs": 45271,
    "\u0120reminder": 13151,
    "\u0120cranberry": 48756,
    "\u0120resonated": 37151,
    "\u00e2\u0137\u0132\u00e2\u0137\u0132": 33651,
    "\u0120collar": 25748,
    "\u0120dissociation": 48619,
    "\u0120seriously": 9939,
    "\u0120til": 21977,
    "bred": 27099,
    "\u0120odors": 31344,
    "\u0120flawed": 25836,
    "\u0120Lal": 42147,
    "\u0120maize": 20708,
    "IP": 6188,
    "orating": 31538,
    "\u0120QtWidgets": 27191,
    "\u0120headers": 14742,
    "sequence": 19932,
    "\u0120recur": 12807,
    "\u00cf\u0124": 18624,
    ".\u00e2\u0122\u013f)": 44218,
    "ESC": 23110,
    "\u0120Eid": 41193,
    "Population": 33107,
    "forest": 13470,
    "Account": 25008,
    "Af": 15678,
    "load": 2386,
    "\u0120Indo": 22321,
    "\u0120intently": 30779,
    "\u0120MORE": 33638,
    "\u0120executive": 9518,
    "\u0120reven": 7169,
    "ocus": 1476,
    "ocate": 11003,
    "\u0120worsh": 21701,
    "\u0120Respons": 15055,
    "\u0120tickets": 22830,
    "NOTE": 30392,
    "\u0120acetaminophen": 40783,
    "\u0120instructor": 13334,
    "posp": 41122,
    "\u0120Miguel": 38802,
    "\u0120loads": 13101,
    "deck": 49044,
    "\u0120Achieving": 47881,
    "\u0120rs": 36242,
    "derived": 22148,
    "ibo": 41764,
    "\u0120generated": 6171,
    "essee": 13814,
    "Alternative": 42797,
    "ovir": 48871,
    "\u0120mindfulness": 11686,
    "\u0120phr": 6029,
    "\u0120Gastroenter": 44123,
    "############": 24967,
    "\u0120Kurt": 34843,
    "\u0120economists": 21151,
    "\u0120effects": 2165,
    "amps": 8819,
    "\u0120stratification": 35815,
    "annah": 18122,
    "\u0120grammat": 21813,
    "ints": 22696,
    "\u0120inherit": 13432,
    "\u0120instrument": 5769,
    "Wikimedia": 35367,
    "letcher": 37344,
    "Extra": 38585,
    "ambda": 6980,
    "\u0120demarc": 42490,
    "\u0120Measures": 25717,
    "nesia": 45062,
    "sci": 25654,
    "\u0120reinforcing": 17910,
    "\u0120Livestock": 43918,
    "\u0120transplanting": 45935,
    "\u0120Oss": 44828,
    "Likewise": 44171,
    "\u0120Ans": 40242,
    "\u0120puzzle": 12728,
    "\u0120Cellular": 42214,
    "\u0120maternity": 41903,
    "ected": 1490,
    "\u0120href": 31680,
    "\u0120SPF": 38546,
    "\u0120progeny": 45525,
    "\u0120Substances": 43419,
    "\u0120Frequently": 35567,
    "\u0120Rol": 22972,
    "\u0120rationale": 23929,
    "\u0120Gri": 38838,
    "\u0120hierarchical": 22621,
    "\u0120reservations": 27592,
    "--------": 916,
    "\u0120outlining": 25899,
    "\u0120inadvert": 30563,
    "\u0120pops": 35410,
    "Jackson": 45340,
    "perors": 28714,
    "\u0120Cave": 25622,
    "\u0120McK": 17693,
    "ibi": 47101,
    "Astron": 41741,
    "\u0120handled": 15170,
    "issions": 2939,
    "\u0120AD": 5236,
    "\u0120citing": 18617,
    "ilepsy": 48315,
    "('/')": 40796,
    "\u0120mushroom": 25888,
    "\u0120overfishing": 44918,
    "\u0120conflicts": 7301,
    "xis": 20130,
    "\u0120moves": 7488,
    "\u0120Interaction": 20614,
    "oling": 41982,
    "\u0120genomics": 34130,
    "\u0120sensitivity": 8305,
    "avi": 28352,
    "ynt": 11103,
    "\u0120Supplement": 23038,
    "edar": 23310,
    "ensis": 15484,
    "\u0120Perc": 39052,
    "\u0120minimizing": 12009,
    "\u0120critique": 17774,
    "\u0120close": 2800,
    "\u0120outfits": 43553,
    "\u0120Introduce": 32630,
    "\u0120why": 1701,
    "wick": 18034,
    "\u0120interven": 15685,
    "ample": 2201,
    "\u0120capitalists": 39920,
    "\u0120Doug": 37766,
    "\u0120ads": 18280,
    "und": 1145,
    "\u0120Castle": 14887,
    "\u0120binoculars": 34709,
    "\u0120Faith": 16403,
    "\u0120chemicals": 5478,
    "\u0120creators": 16487,
    "\u0120elbow": 20494,
    "\u0120Eck": 37914,
    "\u0120exploit": 16667,
    "itivity": 6571,
    "\u0120tuna": 25757,
    "\u0120periodical": 48145,
    "bour": 10803,
    "\u0120code": 2909,
    "\u0120monthly": 11697,
    "\u0120orthodoxy": 49035,
    "\u0120reassess": 42191,
    "\u0120finds": 8284,
    "orate": 8069,
    "\u0120spermat": 45298,
    "Ca": 26532,
    "\u0120oppos": 33171,
    "yx": 36604,
    "\u0120Turning": 34676,
    "\u0120drink": 5968,
    "\u0120eliminated": 15129,
    "\u0120fourteenth": 40937,
    "\u0120topped": 33178,
    "\u0120VS": 44617,
    "\u0120affiliate": 32438,
    "\u0120indirectly": 17823,
    "\u0120Genealogy": 49057,
    "\u0120specim": 9188,
    "ftime": 25304,
    "\u0120wage": 11796,
    "\u00e5\u012a\u0128": 37349,
    "\u0120plumbing": 24973,
    "\u0120hearing": 5364,
    "\u0120suck": 24903,
    "\u0120necrosis": 37898,
    "(%": 37511,
    "DN": 40559,
    "amus": 47529,
    "\u0120Client": 23787,
    "\u0120faculty": 8392,
    "\u0120grizzly": 42199,
    "\u0120cemetery": 19295,
    "\u0120sharply": 22463,
    "\u0120Milk": 22935,
    "\u0120Asia": 5255,
    "\u0120billion": 4533,
    "\u0120breakage": 47520,
    "\u0120capillary": 35339,
    "\u0120ACL": 33826,
    "\u0120Bonn": 43542,
    "-----": 17318,
    "\u0120Numerous": 29716,
    "\u0120growths": 36855,
    "\u0120rarer": 46773,
    "\u0120Thoreau": 47377,
    "\u0120Considering": 28688,
    "ibles": 17502,
    "\u0120regarding": 3584,
    "alf": 2209,
    "urous": 25572,
    "\u0120Wearing": 43966,
    "\u00cf\u012e": 36180,
    "\u0120Implement": 16662,
    "\u0120mun": 36556,
    "bomb": 48957,
    "\u0120Shark": 40127,
    "\u0120underscores": 20162,
    "vity": 6463,
    "\u0120Dors": 45484,
    "Support": 28605,
    "\u0120permanently": 15836,
    "\u0120hospitalization": 30744,
    "alm": 9223,
    "table": 6413,
    "\u0120unwell": 40509,
    "onet": 45797,
    "unittest": 23239,
    "\u0120afraid": 11830,
    "EP": 7293,
    "\u0120Paw": 39240,
    "Begin": 20990,
    "\u0120terminate": 34993,
    "stakes": 44767,
    "evolving": 24186,
    "\u0120unlike": 9653,
    "FL": 13859,
    "\u0120progenitor": 48289,
    "\u0120runtime": 29709,
    "\u0120pertinent": 22612,
    "\u0120bouts": 38923,
    "regions": 35615,
    "\u0120elephants": 17145,
    "\u0120Specific": 20023,
    "\u0120freshman": 46892,
    "\u0120theatrical": 36531,
    "\u0120Machine": 13400,
    "\u0120Sail": 41717,
    "\u0120vend": 14865,
    "viol": 22059,
    "cko": 36278,
    "\u0120Diseases": 15202,
    "\u0120worse": 6672,
    "\u0120Fung": 35784,
    "\u0120Now": 3569,
    "crapers": 39520,
    "infrared": 42826,
    "ixon": 19409,
    "rograph": 32470,
    "Runner": 42130,
    "\u0120Arm": 11889,
    "\u0120involves": 3445,
    "Asian": 39990,
    "\u0120shellfish": 27234,
    "\u0120Daily": 13001,
    "\u0120deepest": 25849,
    "\u0120processed": 8484,
    "\u010a\u0120\u0120\u0120\u0120\u0120\u0120\u0120\u0120\u0120\u0120\u0120\u0120\u010a\u0120\u0120\u0120\u0120\u0120\u0120\u0120": 36496,
    "\u0120cure": 9681,
    "\u0120pouch": 35993,
    "othed": 38460,
    "\u0120confronting": 27239,
    "because": 17587,
    "amiliar": 13633,
    "integ": 12057,
    "\u0120adopts": 41892,
    "itu": 14383,
    "Assert": 46923,
    "\u0120excluding": 26827,
    "\u0120optical": 10454,
    "\u0120paranormal": 40184,
    "\u0120antibody": 17705,
    "face": 1803,
    "ppm": 46222,
    "\u0120Gather": 21009,
    "\u0120fleas": 30970,
    "Work": 16923,
    "uschwitz": 30652,
    "\u0120Companion": 34191,
    "\u0120Ry": 26395,
    "RR": 31162,
    "\u0120Shim": 41100,
    "\u0120Sources": 20392,
    "\u0120Westminster": 27906,
    "\u0120gods": 9734,
    "\u0120resembled": 37684,
    "\u0120rhymes": 31729,
    "\u0120unfore": 27498,
    "features": 11428,
    "made": 9211,
    "ovascular": 8244,
    "\u0120Eth": 6972,
    "It": 1589,
    "\u0120detectors": 22383,
    "atar": 17425,
    "\u0120Fletcher": 40775,
    "\u0120inclusions": 43491,
    "\u0120monounsaturated": 48657,
    "\u0120throats": 47237,
    "\u0120wip": 18192,
    "\u0120Invent": 21738,
    "\u0120ar": 562,
    "\u0120African": 3486,
    "\u0120\u00e2\u0122": 459,
    "\u0120hospitals": 9429,
    "\u0120revealed": 6405,
    "servers": 36494,
    "IF": 8107,
    "\u0120abide": 34609,
    "BN": 6409,
    "avement": 30092,
    "aline": 43251,
    "\u0120documented": 10728,
    "\u0120forwards": 38346,
    "\u0120metropolis": 39228,
    "\u0120Oxford": 8526,
    "\u0120exalted": 47622,
    "\u0120interchangeably": 34658,
    "\u0134\u012e": 40276,
    "\u0120charcoal": 22664,
    "\u0120Farm": 11568,
    "\u0120chron": 12518,
    "rano": 46599,
    "hazard": 47307,
    "\u0120worth": 4048,
    "Complex": 40050,
    "\u0120broker": 32683,
    "\u0120cables": 16494,
    "\u0120casting": 17462,
    "\u0120topography": 25981,
    "Har": 25520,
    "\u0120Fit": 28227,
    "\u0120Modern": 7242,
    "ocur": 15198,
    "spl": 23057,
    "\u0120Distribution": 22475,
    "\u0120posted": 11557,
    "\u0120pod": 10549,
    "\u0120Rare": 26756,
    "Api": 27846,
    "Ident": 15263,
    "\u0120Protocols": 47735,
    "opin": 31593,
    "\u0120motorized": 48174,
    "\u0120mot": 1981,
    "season": 20697,
    "\u0120Claus": 39536,
    "\u0120civil": 3181,
    "\u0120wastes": 20871,
    "interrupted": 36710,
    "\u0120seek": 4811,
    "\u0120Mim": 49063,
    "\u0120patriotism": 32033,
    "\u0120acknowledges": 24311,
    "clesiastical": 27748,
    "\u0120dramat": 40255,
    "\u0120a": 253,
    "\u0120anywhere": 8471,
    "\u0120fungus": 16141,
    "\u0120iconic": 13329,
    "\u0120Juno": 43337,
    "\u0120victim": 5232,
    "oration": 2425,
    "\u0120burden": 10344,
    "\u0120TEM": 44568,
    "Broad": 38570,
    "\u0120Gott": 35946,
    "aneous": 10308,
    "\u0120Cret": 26431,
    "())": 5107,
    "grain": 32700,
    "\u0120Caj": 42552,
    "\u0120Neb": 27820,
    "\u0120SIM": 33491,
    "\u0120tad": 40208,
    "\u0120coincides": 41617,
    "\u0120curvature": 26589,
    "\u0120throat": 10772,
    "chemical": 26635,
    "manship": 16582,
    "\u0120DNR": 45928,
    "\u0120Diaspora": 44555,
    "\u0120Heter": 45839,
    "\u0120Hopkins": 17613,
    "\u0120discriminatory": 23620,
    "apest": 42822,
    "lectric": 22036,
    "\u0120lonely": 25136,
    "/?": 35005,
    "Oxford": 34553,
    "\u0120pollutant": 36512,
    "\u0120undergone": 23663,
    "\u0120inference": 23630,
    "\u0120bystand": 38787,
    "yet": 34116,
    "ONT": 32598,
    "\u0120verse": 12168,
    "\u0120securities": 23294,
    "ination": 1302,
    "t": 100,
    "ogene": 12811,
    "\u0120Orbit": 34713,
    "\u0120RV": 40896,
    "\u0120Id": 13061,
    "\u0120watches": 27593,
    "\u0120AV": 21922,
    "\u0120Burn": 18204,
    "\u0120ambiguous": 23486,
    "\u0120refugees": 11622,
    "\u0120steps": 3301,
    "\u0120professional": 3544,
    "\u0120Parameter": 36204,
    "\u0120admitting": 35234,
    "\u0120Persistent": 40526,
    "\u0120detained": 34419,
    "=-": 15196,
    "ucking": 24431,
    "\u0120Lock": 21536,
    "\u0120leve": 40854,
    "\u0120CM": 18547,
    "\u0120conviction": 20467,
    "\u0120Flow": 14327,
    "adays": 12844,
    "\u0120Toledo": 42892,
    "\u0120Adobe": 24063,
    "\u0120Sloven": 33435,
    "\u0120div": 3044,
    "\u0120Religious": 18145,
    "\u0120maker": 21258,
    "NSA": 46905,
    "orders": 3405,
    "marker": 31043,
    "\u0120grasslands": 25431,
    "\u0120Advoc": 26224,
    "\u0120posed": 13954,
    "\u0120acron": 24599,
    "\u0120underwent": 23054,
    "rid": 4298,
    "\u0120Stream": 23020,
    "crafted": 32944,
    "\u0120antibacterial": 27736,
    "\u0120satellite": 8304,
    "Ram": 41842,
    "square": 20170,
    "\").": 10425,
    "\u0120Necessary": 40402,
    "enson": 21063,
    "\u0120DOE": 35405,
    "cms": 48367,
    "\u0120crest": 24943,
    "rosse": 37237,
    "\u0120paths": 9146,
    "\u0120Eventually": 13844,
    "\u0120yaml": 28724,
    "\u0120Acc": 6698,
    "\u0120armp": 48578,
    "getattr": 35446,
    "hops": 10096,
    "Logger": 19067,
    "reports": 36865,
    "\u0120Production": 16698,
    "\u0120blister": 36553,
    "\u0120glycogen": 37629,
    "\u0120Ap": 6938,
    "\u0120Communists": 38450,
    "events": 19020,
    "\u0120Thanksgiving": 20611,
    "\u0120clos": 2565,
    "\u0120identifying": 7401,
    "\u0120planners": 22449,
    "ether": 4470,
    "\u0120tip": 8618,
    "\u0120voice": 5274,
    "members": 23196,
    "\u0120dom": 2266,
    "\u0120plant": 1783,
    "note": 12473,
    "stride": 28839,
    "\u0120HB": 37934,
    "\u0120ceiling": 17451,
    "\u0120emer": 47743,
    "\u0120reared": 43280,
    "\u0120seed": 5047,
    "\u0120Lad": 22990,
    "\u0120lotteries": 46428,
    "\u0120biometric": 44577,
    "\u0120overlaps": 42160,
    "January": 19306,
    "igions": 37669,
    "\u0120JL": 43205,
    "\u0120movable": 39245,
    "ilation": 7566,
    "Supplement": 41667,
    "\u0120Senator": 22152,
    "\u0120coffin": 36487,
    "Fresh": 40058,
    "nr": 26730,
    "stract": 5539,
    "rubs": 14849,
    "\u0120tracker": 37608,
    "\u0120Format": 21775,
    "elson": 13854,
    "\u0120wiping": 40848,
    "tered": 4587,
    "\u00c2\u00a9": 14115,
    "\u0120=================================================================": 40672,
    "uther": 9689,
    "\u0120Rachel": 24576,
    "uni": 21202,
    "\u0120regen": 15782,
    "\u0120responding": 13972,
    "\u0120Lawrence": 15161,
    "\u0120Yesh": 46770,
    "\u0120breat": 3455,
    "\u0120grabbing": 41105,
    "\u0120Geneva": 21955,
    "\u0120directly": 3319,
    "\u0120Bacterial": 40313,
    "\u0120circumstances": 5687,
    "\u0120Here": 3726,
    "\u0120gard": 3303,
    "\u0120depict": 6500,
    "\u0120complications": 8527,
    "\u0120constitution": 7384,
    "\u0120ether": 33854,
    "\u0120celeb": 10173,
    "rein": 48988,
    "\u0120disconnect": 28819,
    "sh": 1595,
    "scaling": 43586,
    "\u0120resuscitation": 48026,
    "\u0120casualty": 43247,
    "\u0120nesting": 17759,
    "aunders": 34064,
    "\u0120debugging": 33665,
    "assert": 3391,
    "oskeleton": 42194,
    "\u0120Advert": 28414,
    "\u0120EMS": 48054,
    "\u0120decor": 7355,
    "\u0120corporation": 18743,
    "\u00e0\u00a8": 25116,
    "\u0120medi": 18107,
    "\u0120compelling": 10337,
    "\u0120connectivity": 15003,
    "\u0120archival": 28760,
    "\u0120Relevant": 38120,
    "\u0120gorgeous": 35702,
    "\u0120\u00c2\u00b5g": 48450,
    "\u0120mic": 9205,
    "Create": 11870,
    "\u00e5": 176,
    "\u0120Information": 6117,
    "\u0120Sales": 25975,
    "\u00d0\u00be\u00d0\u00b9": 46973,
    "\u0120explicitly": 11075,
    "\u0120geographically": 29486,
    "\u0120tru": 4084,
    "\u0120treaty": 12175,
    "perty": 6119,
    "enas": 42254,
    "women": 28774,
    "\u0120Consciousness": 37955,
    "\u0120entanglement": 44175,
    "\u0120X": 2273,
    "\u0120restore": 9691,
    "\u0120trenches": 29981,
    "\u0120cart": 6657,
    "ahua": 46867,
    "\u0120Bones": 43031,
    "}": 109,
    "iforn": 3660,
    "\u0120Natal": 36366,
    "\u0120envelopes": 43382,
    "\u0120eq": 31709,
    "Popular": 39144,
    "ysical": 9344,
    "\u0120exist": 1822,
    "\u0120habitual": 37984,
    "\u0120DVD": 23464,
    "schema": 16161,
    "\u0120Sounds": 16306,
    "rusted": 23813,
    "generate": 17379,
    "\u0120hundreds": 6061,
    "\u0120radii": 47317,
    "\u0120immigrant": 17616,
    "\u0120eighty": 30085,
    "\u0120perpetuating": 30031,
    "xx": 10969,
    "dl": 20044,
    "\u0120UT": 21798,
    "students": 29489,
    "\u0120simulating": 36538,
    "mediately": 27440,
    "\u0120Radiation": 24102,
    "############################################################################": 39910,
    "\u0120atlas": 36568,
    "\u0120documentation": 10822,
    "\u0120requests": 8649,
    "\u0120Voltage": 43881,
    "\u0120Lynch": 37545,
    "enching": 42143,
    "\u0120violating": 32453,
    "aters": 4361,
    "\u0120adorn": 18471,
    "\u0120financ": 2884,
    "\u0120Virgin": 6057,
    "\u0120symptom": 10884,
    "\u0120LIMIT": 35873,
    "\u0120pont": 48191,
    "\u0120vapour": 35053,
    "liked": 41240,
    "\u0120Opt": 5395,
    "\u0120kerosene": 47357,
    "except": 14238,
    "services": 21428,
    "jp": 34580,
    "\u0120Armenians": 37626,
    "duct": 1922,
    "imir": 25918,
    "result": 4917,
    "\u0120Demand": 30675,
    "\u0120betray": 20326,
    "\u0120biscuits": 42638,
    "\u0120inflammatory": 12883,
    "\u0120mathematic": 14361,
    "\u0120kills": 18483,
    "\u0120root": 3752,
    "\u0120loading": 15299,
    "Conn": 10585,
    "\u0120itch": 35215,
    "\u0120Bam": 42563,
    "\u0120Etrus": 48524,
    "\u0120complicate": 34220,
    "\u0120cloud": 6249,
    "\u0120Reduce": 21876,
    "\u0120enriched": 22212,
    "\u0120firstly": 38649,
    "\u0120som": 1097,
    "Par": 7309,
    "\u0120disturbed": 19856,
    "\u0120Aene": 48369,
    "\u0120allele": 33318,
    "\u0120cs": 41621,
    "\u0120ethnic": 6609,
    "\u0120stems": 11148,
    "\u0120Hans": 15338,
    "\u0120Prescription": 48230,
    "Would": 26001,
    "demo": 44056,
    "diction": 12836,
    "\u0120unman": 26456,
    "\u0120macron": 44055,
    "processor": 23285,
    "\u0120Aren": 38910,
    "\u0120designers": 10284,
    "Steps": 21831,
    "SC": 8076,
    "Simon": 45619,
    "umper": 29595,
    "\u0120elastic": 16248,
    "\u0120blocked": 15166,
    "\u0120impossible": 6316,
    "\u0120Installing": 43379,
    "stead": 26094,
    "effic": 12529,
    "discipline": 36900,
    "aphy": 18881,
    "\u0120Lisa": 24252,
    "\u00d1\u0122": 9175,
    "\u0120MHz": 30100,
    "\u0120corrupt": 16568,
    "\u0120instru": 3909,
    "omenclature": 32125,
    "Frequency": 42593,
    "summary": 18347,
    "\u0120Zhu": 47117,
    "\u0120blem": 47134,
    "\u0120rainbow": 24594,
    "\u0120perv": 19497,
    "\u0120Wolfgang": 45811,
    "epsilon": 35941,
    "\u0120institutionalized": 42409,
    "\u0120Pulitzer": 43487,
    "\u0120congregation": 21848,
    "\u0120fast": 3538,
    "affected": 23668,
    "\u0120Gastro": 31223,
    "\u0120Successful": 23637,
    "\u0120prosperous": 23935,
    "\u0120Armenia": 28054,
    "ied": 885,
    "\u0120arms": 6548,
    "pos": 1389,
    "\u0120Mall": 26824,
    "\u0120tendon": 20831,
    "\u0120predicament": 42813,
    "\u0120purity": 19847,
    "estinal": 13728,
    "\u0120Match": 31421,
    "\u0120dementia": 11136,
    "chain": 8625,
    "\u0120hepatitis": 15130,
    "\u0120Super": 8486,
    "\u0120notified": 31743,
    "\u0120CCC": 43373,
    "\u0120Shack": 42184,
    "\u0120integrative": 34370,
    "\u0120puncture": 39693,
    "\u0120turmoil": 23558,
    "\u0120Weekly": 29524,
    "\u0120anaemia": 46014,
    "bius": 44880,
    "iota": 25420,
    "\u012c": 228,
    "\u0120Attention": 26541,
    "\u0120unto": 15032,
    "lie": 17011,
    "\u0120carriages": 47398,
    "\u0120Annot": 37171,
    "Label": 17213,
    "\u0120Sweden": 12598,
    "omies": 38764,
    "\u0120switching": 15545,
    "\u0120fulfill": 12025,
    "heid": 21279,
    "\u0120wonders": 13278,
    "\u0120corrupted": 37732,
    "delete": 10334,
    "awk": 27134,
    "severance": 15150,
    "GIS": 27705,
    "\u0120cyclists": 33112,
    "\u0120parliamentary": 23963,
    "\u0120shops": 14402,
    "\u0120excursions": 45140,
    "Feature": 25660,
    "\u0120storm": 5670,
    "ifix": 28591,
    "\u0120unraveling": 46376,
    "DES": 47983,
    "\u0120treason": 33974,
    "\u0120Palest": 9370,
    "Innov": 40188,
    "\u0120McCl": 38880,
    "ige": 14921,
    "\u0120Mist": 31303,
    "\u0120subscriptions": 45294,
    "\u0120Then": 3875,
    "\u0120discrimination": 6742,
    "bows": 27100,
    "\u0120insurrection": 45594,
    "live": 25857,
    "\u0120Perman": 30607,
    "--------------": 36488,
    "report": 11597,
    "\u0120exponent": 38999,
    "\u0120Audience": 39005,
    "\u0120Britain": 5679,
    "\u0120Dor": 15260,
    "min": 1659,
    "\u0120glimp": 19570,
    "***": 24299,
    "genesis": 46407,
    "pen": 4916,
    "veh": 42180,
    "\u0120determinants": 26625,
    "\u0120hybrids": 24705,
    "\u0120Colored": 41427,
    "hetics": 12675,
    "\u0120fallen": 12551,
    "ocab": 6419,
    "sparse": 35454,
    "udge": 17465,
    "\u0120Keys": 32638,
    "ORM": 32014,
    "fulness": 6986,
    "\u00d0\u00bb": 12681,
    "ren": 723,
    "acking": 23753,
    "\u0120PSA": 47143,
    "\u0120cocoa": 22537,
    "ka": 6335,
    "\u0120favour": 11611,
    "Alpha": 35599,
    "Avoid": 22834,
    "ardia": 43984,
    "\u0120Marc": 11560,
    "\u0120proceeding": 21983,
    "\u0120publication": 6823,
    "va": 8042,
    "\u0120Ultrasound": 48128,
    "\u0120rally": 25638,
    "\u0120Although": 3483,
    "\u0120borrow": 9893,
    "\u0120OT": 31181,
    "\u0120rates": 3400,
    "\u0120Pakistani": 30326,
    "\u0120scen": 3887,
    "llib": 23687,
    "Contin": 17217,
    "\u0120divisible": 46522,
    "\u0120downloading": 28491,
    "\u0120hawks": 42857,
    "\u0120filenames": 42044,
    "\u0120apparatus": 18446,
    "\u0120gn": 24281,
    "hift": 27680,
    "\u0120Spl": 39725,
    "elsh": 17001,
    "\u0120reparations": 40722,
    "ellows": 22869,
    "\u0120landfills": 25295,
    "optimizer": 22749,
    "anim": 22709,
    "\u0120Band": 17307,
    "\u0120armies": 16328,
    "itably": 17256,
    "\u0120Specialist": 28842,
    "\u0120fundamentally": 19780,
    "odynamics": 22825,
    ".%": 40429,
    "HET": 44879,
    "\u0120arthropods": 47437,
    "\u0120mankind": 15475,
    "eg": 1126,
    "Positive": 31176,
    "ivar": 38062,
    "\u0120phonics": 30558,
    "\u0120debated": 23145,
    "\u0120victories": 22752,
    "inois": 10699,
    "\u0120Mental": 11689,
    "\u0120ST": 5022,
    "\u0120proponent": 47073,
    "\u0120Chin": 26157,
    "daily": 33521,
    "\u0120companies": 3243,
    "\u0120Arbor": 36856,
    "\u00c3\u00a2": 9612,
    "\u0120consensus": 12286,
    "elong": 14408,
    "\u0120successful": 3424,
    "\u0120Third": 11961,
    "uta": 26747,
    "\u0120provoke": 28198,
    "\u0120distancing": 29688,
    "rude": 38936,
    "urther": 1540,
    "herent": 5742,
    "vest": 17912,
    "\u0120Corpus": 41071,
    "bl": 2658,
    "\u0120healers": 48563,
    "\u0120debut": 34053,
    "\u0120embody": 20026,
    "\u0120marijuana": 17433,
    "\u0120pancreat": 18631,
    "\u0120participates": 39905,
    "oors": 14790,
    "ocytes": 15942,
    "\u0120piv": 11260,
    "food": 14904,
    "\u0120corals": 23473,
    "\u0120canned": 25690,
    "\u0120rage": 28454,
    "Hs": 43460,
    "ieft": 45021,
    "\u0120adventurers": 32230,
    "Cop": 36879,
    "Mobile": 37129,
    "move": 15467,
    "regated": 22623,
    "\u0120companion": 14914,
    "#": 19,
    "Features": 36074,
    "biological": 34033,
    "Cra": 36565,
    "clients": 45559,
    "daughter": 35054,
    "\u0120Administration": 8812,
    "\u0120additive": 23564,
    "\u0120eve": 36827,
    "\u0120independence": 6967,
    "\u0120multiplying": 26147,
    "\u0120patents": 20527,
    "\u0120corona": 40117,
    "Cong": 16733,
    "\u0120tornadoes": 31054,
    "encers": 39182,
    "\u0120Preparedness": 46942,
    "\u0120happy": 5587,
    "aman": 14971,
    "dataloader": 48087,
    "!).": 22112,
    "POSE": 37975,
    "\u0120Mat": 4816,
    "\u0120Protocol": 14743,
    "\u0120Sometimes": 5938,
    "Diagn": 27746,
    "\u0120gardening": 12750,
    "\u0120reads": 12927,
    "pre": 1702,
    "\u0120respite": 46226,
    "viii": 45712,
    "pherds": 34787,
    "\u0120None": 1943,
    "\u0120sacr": 7370,
    "\u0120systolic": 39107,
    "\u0120await": 8144,
    "\u0120rou": 12969,
    "Visual": 25144,
    "\u0120active": 3212,
    "\u0120ownership": 9107,
    "d": 84,
    "Event": 13962,
    "\u0120Reach": 28598,
    "\u0120Dome": 46618,
    "\u0120em": 649,
    "\u0120redis": 33985,
    "\u0120functioned": 37422,
    "\u0120\u00e0\u00a4\u0137": 42034,
    "loc": 3981,
    "\u0120Minerals": 38294,
    "\u0120barracks": 40900,
    "teachers": 46986,
    "\u0120misplaced": 48445,
    "\u0120parab": 43099,
    "Step": 3512,
    "abe": 23023,
    "\u0120disadvantages": 17106,
    "+.": 43398,
    "ushed": 7617,
    "\u0120Africans": 18262,
    "got": 34482,
    "\u0120fathers": 16576,
    "\u0120mildew": 34924,
    "\u0120horizons": 20743,
    "\u0120DO": 10108,
    "\u0120commem": 12590,
    "problem": 25076,
    "\u0120acne": 19329,
    "effectiveness": 39233,
    "hands": 41648,
    "\u00e9": 180,
    "Round": 45414,
    "absol": 28792,
    "\u0120Applic": 8397,
    "\u0120Warn": 46617,
    "thening": 27411,
    "'s": 506,
    "\u0120bearded": 43154,
    "\u0120resembles": 19499,
    "\u0120terrorism": 19265,
    "\u0120maturity": 15367,
    "\u0120Wang": 17313,
    "\u0120topp": 41634,
    "\u0120pedestrians": 29202,
    "\u0120trail": 11231,
    "sort": 14628,
    "Monday": 32210,
    "\u0120capitalist": 19379,
    "\u0120marveled": 33977,
    "Stock": 35380,
    "\u0120olive": 13359,
    "\u0120Bibliography": 41214,
    "\u0120Stri": 22262,
    "\u0120observational": 24333,
    "\u0120Gur": 31797,
    "commands": 20245,
    "\u0120boilers": 36001,
    "\u0120coursework": 23839,
    "\u0120reincarnation": 45251,
    "many": 18431,
    "\u0120spacing": 19972,
    "chron": 9962,
    "\u0120Ha": 10661,
    "\u0120India": 3089,
    "\u0120statewide": 28014,
    "arum": 32234,
    "UTH": 19320,
    "{'": 34026,
    "\u0120ble": 6673,
    "\u0120continental": 17989,
    "\u0120diminishing": 29960,
    "\u0120therapy": 3751,
    "*(": 20679,
    "Immun": 44683,
    "rigation": 35103,
    "rib": 762,
    "\u0120paraph": 27966,
    "\u0120unsuspecting": 42576,
    "\u0120'%": 17585,
    "ar": 280,
    "lett": 24263,
    "\u0120bos": 33936,
    ":`~": 44551,
    "\u0120culmination": 39631,
    "\u0120unamb": 39726,
    "Ph": 4586,
    "\u0120Eva": 46055,
    "gp": 29244,
    "\u0120Mouth": 37865,
    "ASK": 34260,
    "Making": 19671,
    "\u0120Kindle": 48410,
    "\u0120diarrhea": 12932,
    "cock": 28505,
    "\u0120flesh": 14169,
    "aw": 912,
    "\u0120Without": 8875,
    "\u0120Fac": 11419,
    "\u0120foundation": 5706,
    "xb": 13153,
    "\u0120Mamm": 24266,
    "\u0120bounty": 39035,
    "\u0120immig": 5525,
    "\u0120reformer": 48560,
    "\u0120pneum": 11856,
    "Histor": 23579,
    "\u0120oranges": 27068,
    "\u0120indicates": 6773,
    "\u0120Das": 31831,
    "\u0120drifted": 47424,
    "\u0120precede": 47173,
    "sth": 45429,
    "\u0120devastated": 28671,
    "plier": 47808,
    "cand": 24130,
    "canc": 36361,
    "\u0120boolean": 29241,
    "\u0120Previous": 24608,
    "$\\": 43278,
    "isteria": 40725,
    "\u0120indef": 22119,
    "\u0120moderator": 45057,
    "\u0120feminism": 27465,
    "\u0120refriger": 34984,
    "\u0120scout": 30693,
    "ying": 3353,
    "leanor": 32493,
    "\u012a": 226,
    "any": 1111,
    "\u0120abandon": 8039,
    "part": 2541,
    "\u0120builder": 24103,
    "\u0120tubing": 31980,
    "\u0120unification": 36089,
    "\u0120recorded": 5797,
    "\u0120\u0120\u0120\u0120\u0120\u0120\u0120\u0120\u0120\u0120\u0120\u0120\u0120\u0120\u0120\u0120\u0120\u0120\u0120\u0120\u0120\u0120\u0120\u0120\u0120\u0120\u0120\u0120\u0120\u0120\u0120\u0120": 12427,
    "\u0120MED": 32983,
    "\u0120Result": 29813,
    "UL": 6565,
    "Eight": 40477,
    "Bud": 42469,
    "material": 25946,
    "MEs": 44369,
    "osocial": 25085,
    "ennon": 25121,
    "\u0120Hot": 12399,
    "\u0120peaks": 17337,
    "\u0120smarter": 20737,
    "\u0120dots": 17098,
    "border": 21670,
    "\u0120silicone": 32387,
    "\u0120HBV": 40187,
    "\u0120racially": 38718,
    "\u0120Burma": 26406,
    "\u0120Dental": 16925,
    "aning": 24061,
    "\u0120posthum": 41797,
    "\u0120leveled": 44419,
    "\u0120slang": 34362,
    "WARNING": 40666,
    "\u0120Afghanistan": 13916,
    "\u0120Elections": 47403,
    "itar": 11601,
    "\u0120Fisheries": 25059,
    "\u0120dissemin": 19610,
    "izontal": 24652,
    "Arthur": 27037,
    "\u0120computerized": 35255,
    "\u0120buildings": 4789,
    "filled": 18045,
    "woven": 38785,
    "ecology": 43536,
    "\u0120Telegraph": 31728,
    "\u0120bits": 11038,
    "arial": 25966,
    "\u0120prophe": 13718,
    "orb": 4434,
    "AH": 33296,
    "\u0120Spin": 34001,
    "Angle": 45637,
    "cephal": 19739,
    "\u0120determining": 8816,
    "\u0120friend": 3289,
    "\u0120cascade": 31289,
    "\u0120Na": 11677,
    "\u0120framing": 25172,
    "inated": 3409,
    "ophical": 25883,
    "\u0120harvesting": 15354,
    "\u0120union": 8964,
    "istically": 11771,
    "anced": 2274,
    "\u0120keyboards": 38318,
    "\u0120n": 304,
    "\u0120Funding": 34732,
    "usal": 7511,
    "\u0120ment": 6018,
    "\u0120hermene": 47190,
    "\u0120fac": 1451,
    "\u0120Therapy": 11932,
    "\u0120functools": 37916,
    "\u0120gemstones": 44948,
    "\u0120global": 2224,
    "\u0120squash": 23383,
    "Vertical": 45069,
    "Hur": 46031,
    "oll": 2685,
    "\u0120Available": 13203,
    "\u0120Mommy": 48194,
    "\u0120torture": 19888,
    "\u0120defining": 11077,
    "\u0120Nutrients": 48992,
    "\u0120connotations": 37091,
    "\u0120makes": 2022,
    "volume": 15591,
    "\u0120Hegel": 35570,
    "\u0120newspapers": 12968,
    "igan": 8515,
    "town": 19090,
    "\u0120conting": 18775,
    "\u0120providing": 3258,
    "JS": 40770,
    "\u0120annals": 43930,
    "\u0120somehow": 14458,
    "\u0120shorthand": 48823,
    "outh": 1469,
    "No": 5230,
    "ARM": 39042,
    "roughly": 48993,
    "\u0120absorbs": 25502,
    "\u0120meaning": 2455,
    "inia": 27388,
    "\u0120myst": 7746,
    "Florida": 45708,
    "\u0120resists": 47674,
    "\u0120sesame": 36773,
    "\u0120minimal": 8624,
    "\u0120punctuation": 23784,
    "\u0120Gospels": 32859,
    "]])": 20154,
    "\u0120progesterone": 32491,
    "\u0120website": 3817,
    "\u0120inhaled": 29608,
    "\u00ce\u00b1\u00cf\u0126": 40844,
    "\u0120celestial": 18146,
    "\u0120frustrations": 46817,
    "\u0120glowing": 26538,
    "As": 1653,
    "\u0120'-": 15695,
    "\u0120Crusades": 40766,
    "\u0120collagen": 21154,
    "\u0120overeating": 44026,
    "\u0120Young": 8124,
    "\u0120raging": 42676,
    "\u0120reproduction": 12166,
    "\u0120heaters": 28301,
    "\u0120columns": 8935,
    "ITH": 36211,
    "space": 11602,
    "mostly": 31711,
    "\u0120UNIX": 41511,
    "human": 10621,
    "stairs": 40404,
    "\u0120Patch": 42996,
    "].": 2880,
    "\u0120Meth": 28613,
    "\u0120dilemma": 22826,
    "porters": 42867,
    "QU": 11745,
    "\u0120beams": 19834,
    "\u0120entertaining": 20894,
    "chus": 29734,
    "\u0120Colonel": 20716,
    "\u0120quadrant": 45871,
    "\u0120misdiagn": 39419,
    "efer": 43582,
    "\u0120Opp": 11666,
    "\u0120proponents": 24058,
    "\u0120sneaky": 47656,
    "\u0120tut": 7314,
    "\u0120inspections": 26166,
    "ZZ": 46276,
    "terminal": 34375,
    "\u0120halves": 32386,
    "Ign": 39886,
    "omencl": 30412,
    "\u0120Inj": 19561,
    "\u0120Dixon": 46514,
    "\u0120Carroll": 29872,
    "\u0120cutter": 35848,
    "\u0120inject": 6833,
    "\u0120instances": 7589,
    "aluable": 19907,
    "\u00e0\u00a4\u0124": 35691,
    "\u0120manufactures": 39246,
    "cision": 15730,
    "\u0120opera": 22472,
    "Amount": 48429,
    "\u0120stress": 2435,
    "NR": 21563,
    "\u0120bought": 10897,
    "\u0120compressor": 28166,
    "\u0120wildlife": 6199,
    "\u0120colonies": 9892,
    "\u0120metallic": 20120,
    "\u0120renewal": 24888,
    "\u0120gait": 29301,
    "\u0120PUR": 35169,
    "\u0120Cov": 17247,
    "\u0120stiff": 12607,
    "medium": 35799,
    "\u0120ple": 4989,
    "\u0120bag": 8727,
    "opedia": 31052,
    "\u0120Efficiency": 27043,
    "\u0120Tutor": 44413,
    "\u0120lotus": 40572,
    "\u0120recipe": 11594,
    "ections": 24568,
    "\u0120refinery": 48059,
    "\u0120aristocracy": 36623,
    "\u0120centres": 16432,
    "fat": 14200,
    "urred": 14046,
    "\u0120Participate": 38381,
    "\u0120corrosion": 17349,
    "\u0120It": 657,
    "\u0120brood": 35118,
    "\u00e2\u0122\u00a2": 3839,
    "\u0120expressly": 37662,
    ">',": 19307,
    "alled": 18515,
    "bey": 18949,
    "orr": 27215,
    "attacks": 36235,
    "\u0120Hz": 24632,
    "\u0120Exp": 9545,
    "\u0120Ph": 1521,
    "\u0120Met": 5304,
    "\u0120dividends": 33037,
    "Sound": 34668,
    "\u0120flask": 21342,
    "\u0120meters": 8137,
    ".,": 1143,
    "\u0120volcanoes": 20920,
    "\u0120Fate": 47551,
    "inters": 27681,
    "\u0120Oper": 8179,
    "Ta": 46783,
    "\u0120violence": 4737,
    "\u0120capit": 47765,
    "\u0120particulate": 26528,
    "downs": 28216,
    "\u0120militar": 33611,
    "Correct": 38323,
    "zep": 38093,
    "\u0120undergoing": 18270,
    "AE": 25331,
    "\u0120propagated": 36067,
    "\u0120diplomacy": 22608,
    "\u0120Mountain": 11525,
    "possibly": 38487,
    "\u0120PURPOSE": 40906,
    "\u0120challenges": 2529,
    "compared": 48085,
    "imoto": 41945,
    "\u0120Tig": 36866,
    "\u0120trigonometry": 46377,
    "rette": 42540,
    "buff": 39224,
    "\u0120geos": 48061,
    "\u0120antidepressant": 39057,
    "\u0120Gibraltar": 46582,
    "\u0120cartoon": 20876,
    "\u0120ammunition": 25738,
    "\u0120commentary": 16468,
    "\u0120dermatologist": 43070,
    "cessive": 41096,
    "\u0120lexicon": 45568,
    "Pressure": 45410,
    "\u0120professionalism": 40267,
    "ANCE": 27305,
    "ilon": 20459,
    "\u0120Gemini": 45640,
    "Close": 28948,
    "hene": 35610,
    "income": 11795,
    "\u0120Reconstruction": 25161,
    "\u0120blooming": 28447,
    "\u0120interacting": 14768,
    "\u0120unwitting": 46936,
    "\u0120ENUM": 32118,
    "\u0120boosting": 23201,
    "Mess": 38371,
    "Compare": 35589,
    "\u0120Sentence": 40699,
    "\u0120inverter": 35369,
    "\u0120yours": 14690,
    "chell": 19605,
    "\u0120auster": 47027,
    "\u0120crows": 45085,
    "ought": 3779,
    "\u0120Bir": 22765,
    "\u0120Abram": 48255,
    "\u0120Cycl": 22217,
    "\u0120agon": 29927,
    "\u0120broke": 10764,
    "\u0120Jump": 37724,
    "agan": 10112,
    "hov": 26392,
    "ional": 1107,
    "\u0120['": 6869,
    "mand": 25759,
    "herical": 20299,
    "vas": 10794,
    "sharp": 45719,
    "django": 15072,
    "\u0120Burns": 28517,
    "\u0120superflu": 49047,
    "\u0120weld": 33104,
    "conf": 7427,
    "ead": 1337,
    "hair": 44479,
    "speaking": 17752,
    "\u0120Anab": 43256,
    "\u0120acknowledgement": 34888,
    "oil": 11458,
    "ns": 5400,
    "\u0120Es": 10970,
    "PV": 11793,
    "\u0120Las": 24174,
    "\u0120Note": 8326,
    "\u0120dist": 1006,
    "\u0120pere": 15221,
    "\u0120station": 5729,
    "\u0120soaked": 31925,
    "\u0120NSF": 29227,
    "\u0120\".": 14626,
    "\u0120FDR": 37996,
    "nec": 28921,
    "\u0120abuses": 23451,
    "\u0120Attributes": 36579,
    "\u0120humanism": 47193,
    "\u0120Oedipus": 48850,
    "\u0120oprot": 33434,
    "\u0120perplex": 38481,
    "sic": 35593,
    "\u0120AC": 12121,
    "\u0120accordingly": 9839,
    "\u0120placements": 45539,
    "\u0120Princess": 26708,
    "\u0120calendar": 11401,
    "\u0120ripe": 21333,
    "\u0120sailor": 42265,
    "\u0120smoothing": 36731,
    "/*": 44494,
    "\u0120mutated": 37785,
    "\u0120Pet": 9133,
    "\u0120rent": 10451,
    "imag": 18788,
    "ucalyptus": 30777,
    "ognitive": 12942,
    "\u0120Delaware": 21346,
    "\u0120fluor": 12161,
    "igate": 28720,
    "ivers": 1034,
    "\u0120George": 5370,
    "SY": 31110,
    "idis": 17889,
    "\u0120Rou": 21013,
    "\u0120sessions": 7838,
    "\u0120continuity": 16186,
    "Exodus": 42277,
    "ago": 5515,
    "\u0120indistinguishable": 42503,
    "cha": 14884,
    "\u0120White": 5683,
    "\u0120atom": 11776,
    "\u0120diurnal": 47448,
    "\u0120instructors": 17231,
    "\u0120oxal": 41405,
    "\u0120bun": 21727,
    "\u0120seconds": 7345,
    "\u0120widely": 4889,
    "\u0120MM": 26878,
    "\u0120immediate": 6723,
    "Bin": 47982,
    "\u00e5\u0127\u00a5": 38869,
    "\u0120blood": 1670,
    "stackoverflow": 48521,
    "\u0120perception": 8302,
    "opening": 33861,
    "\"},": 24885,
    "\u0120Child": 3776,
    "::": 9533,
    "raw": 1709,
    "\u0120Worksheet": 28900,
    "\u0120create": 1464,
    "incoln": 9139,
    "inspired": 29221,
    "mg": 16442,
    "\u0120Leave": 22726,
    "\u0120infest": 16832,
    "\u0120multic": 26591,
    "\u0120])": 26316,
    "\u0120Additionally": 4454,
    "\u0120quantum": 8671,
    "}\"": 18206,
    "\u0120clerk": 31700,
    "\u0120performer": 34882,
    "angu": 1312,
    "\u0120Female": 22673,
    "\u0120multinational": 27942,
    "\u010a\u0120\u0120\u0120\u0120\u0120\u0120\u0120\u0120\u0120\u0120\u0120\u0120\u0120\u0120\u0120\u0120\u0120\u0120\u0120\u0120\u0120\u0120\u0120": 3337,
    "\u0120Stem": 28065,
    "lando": 36234,
    "\u0120resolutions": 22886,
    "\u0120multilateral": 34485,
    "\u0120Aden": 44900,
    "\u0120Corner": 39565,
    "\u0120recess": 17019,
    "\u010a\u0120\u0120\u0120": 472,
    "igm": 10071,
    "\u0120boring": 19290,
    "\u0120Eld": 18273,
    "\u0120fashion": 7317,
    "\u0120granting": 23796,
    "\u0120Tragedy": 49142,
    "isk": 7174,
    "\u0120childbearing": 48655,
    "\u0120starvation": 25060,
    "\u0120dimensions": 8213,
    "'-": 35893,
    "\u0120friendly": 7952,
    "\u010a\u0120\u0120\u0120\u0120\u0120\u0120\u0120\u0120\u0120\u0120\u0120\u0120\u0120\u0120\u0120\u0120\u0120\u0120\u0120\u0120\u0120\u0120\u0120\u0120\u0120\u0120\u0120\u0120\u0120\u0120\u0120\u0120\u0120\u0120\u0120\u0120\u0120\u0120\u0120\u0120\u0120\u0120\u0120\u0120\u0120": 36176,
    "Local": 19542,
    "nic": 5180,
    "Between": 22516,
    "pped": 4194,
    "\u0120Whats": 48889,
    "\u0120sham": 32918,
    "Secondary": 40828,
    "\u0120trill": 39477,
    ")*": 14428,
    "insic": 13343,
    "luence": 25633,
    "omans": 25868,
    "zee": 36729,
    "\u0120Bere": 43328,
    "oglobulin": 42926,
    "\u0120Decre": 29735,
    "\u0120barns": 48383,
    "\u0120deemed": 14100,
    "\u0120mandatory": 15252,
    "\u0120unanswered": 41391,
    "\u0120vegans": 47217,
    "Eng": 9292,
    "\u0120Formal": 36770,
    "breaks": 43627,
    "\u0120MIDI": 44279,
    "ester": 6062,
    "tokens": 20986,
    "\u0120milkweed": 46169,
    "sided": 24110,
    "\u0120handsome": 35012,
    "\u0120Manuel": 35164,
    "\u0120same": 1142,
    "\u0120braking": 30435,
    "middleware": 47175,
    "\u0120scape": 47606,
    "\u0120air": 1512,
    "\u0120bid": 18089,
    "\u0120nocturnal": 27715,
    "Vacc": 38104,
    "\u0120Panch": 41968,
    "\u0120fragile": 15725,
    "\u0120retribution": 42343,
    "\u0120threat": 2896,
    "retched": 34597,
    "'''": 11193,
    "\u0120unittest": 18652,
    "\u0120disasters": 11982,
    "LOAD": 36038,
    "\u0120Cole": 20502,
    "\u0120polymers": 23757,
    "tube": 35694,
    "Tele": 30800,
    "\u0120Key": 6400,
    "\u0120Wouldn": 35294,
    "\u0120diffraction": 34648,
    "\u00ce\u00bd\u00cf\u012b": 40005,
    "\u0120smiled": 18628,
    "EDS": 49128,
    "hold": 2326,
    "\u0120Asiatic": 47358,
    "\u0120pacemaker": 46105,
    "\u0120varic": 35645,
    "urized": 25986,
    "\u0120Faul": 47906,
    "\u0120Landsat": 47993,
    "\u0120angel": 19582,
    "\u0120support": 1199,
    "\u0120workout": 18730,
    "\u0120rat": 4309,
    "\u0120Gor": 32506,
    "China": 18776,
    "\u0120Ell": 10758,
    "\u0120Conversely": 17963,
    "Folder": 33903,
    "\u0120irregular": 12231,
    "\u0120Lakota": 48908,
    "\u0120celiac": 29234,
    "\u0120dab": 44263,
    "fts": 7526,
    "\u0120Anderson": 15935,
    "\u0120Hast": 35179,
    "\u0120mediated": 26977,
    "\u0120outweigh": 27295,
    "INT": 14939,
    "deletion": 31744,
    "\u0120assemblages": 46901,
    "\u0120Pron": 35168,
    "\u0120observance": 30322,
    "nod": 41031,
    "\u0120Account": 11972,
    "ollah": 47990,
    "Three": 16705,
    "sex": 8745,
    "\u0120routine": 7021,
    "\u0120frustrated": 18852,
    "\u0120coron": 9762,
    "\u0120bikes": 27962,
    "\u0120unsatis": 38617,
    "Match": 32827,
    "\u0120Replace": 30939,
    "\u0120kilometer": 42210,
    "Li": 26722,
    "Purpose": 44860,
    "\u0120apartment": 19179,
    "\u0120ICC": 39504,
    "\u0120chlorine": 19512,
    "\u0120entertain": 7471,
    "\u0120Brexit": 42046,
    "\u0120Rele": 21231,
    "Prepar": 28537,
    "\u0120Agreement": 16151,
    "\u0120saliva": 18846,
    "\u0120visualization": 15171,
    "ubilee": 43647,
    "statistics": 33848,
    "\u0120distinguishes": 29792,
    "\u0120EM": 16544,
    "\u0120resourceful": 45420,
    "National": 11777,
    "\u0120analyzer": 45651,
    "\u0120hurt": 9285,
    "\u0120seventeenth": 26161,
    "\u0120curator": 32309,
    "nums": 36516,
    "\u0120System": 3829,
    "\u0120capsules": 29144,
    "employed": 47905,
    "\u0120processors": 20036,
    "\u0120MPH": 42667,
    "\u0120sixteenth": 27825,
    "\u0120Professor": 6785,
    "\u0120'{}": 28370,
    "Prefix": 33108,
    "\u0120Programming": 21687,
    "\u0120Computing": 20050,
    "\u0120Memphis": 29882,
    "\u0120irres": 22447,
    "\u0120acknowled": 7675,
    "serial": 15599,
    "isen": 20218,
    "moving": 24367,
    "arser": 4552,
    "\u010d\u010a\u0120\u0120\u0120\u0120\u0120\u0120\u0120\u0120\u0120\u0120\u0120\u0120": 31464,
    "coh": 3835,
    "Uk": 48904,
    "\u0120semic": 40066,
    "\u0120unhappy": 25107,
    "\u0120masters": 15379,
    "inka": 49092,
    "zi": 16668,
    "\u0120Meteorological": 39222,
    "\u0120Photos": 19268,
    "\u0120ledger": 30045,
    "\u0120re": 298,
    "bursts": 44445,
    "\u0120principles": 3618,
    "\");": 21646,
    "\u0120demonstr": 2700,
    "ateness": 36851,
    "\u0120Pel": 19334,
    "asets": 11060,
    "advanced": 47464,
    "ULAR": 32029,
    "Mag": 33648,
    "\u0120office": 4608,
    "\u0120apply": 3777,
    "Digital": 22323,
    "\u0120eas": 1367,
    "forth": 29044,
    "ucing": 18008,
    "Statement": 42767,
    "\u00e6\u013a\u00af": 27830,
    "urate": 25453,
    "\u0120Commissioner": 23603,
    "\u0120specifying": 26149,
    "\u0120pictorial": 39495,
    "\u00e9\u013d": 44846,
    "edy": 6879,
    "addr": 18678,
    "active": 5138,
    "\u0120Own": 13983,
    "\u0120Rud": 20729,
    "\u0120events": 2466,
    "\u0120possesses": 20375,
    "\u0120lament": 31073,
    "tern": 696,
    "\u0120stadium": 31342,
    "esium": 10509,
    "\u0120tri": 3149,
    "ega": 9005,
    "pieces": 19392,
    "\u0120allowed": 3917,
    "\u0120Approach": 15883,
    "annab": 22238,
    "NER": 39519,
    "Ent": 14306,
    "\u0120thy": 13987,
    "\u0120wheel": 8656,
    "heastern": 13008,
    "\u0120discriminate": 30029,
    "\u0120forestry": 23502,
    "Ro": 34095,
    "\u0120carnivorous": 41373,
    ":\"": 25898,
    "\u0120recession": 21015,
    "fox": 29343,
    "\u0120Elimination": 45046,
    "WORK": 37216,
    "\u0120Hels": 39951,
    "\u0120converted": 9648,
    "thin": 39200,
    "[:-": 23200,
    "\u0120trailbl": 40157,
    "ERE": 14298,
    "\u0120Fiber": 32433,
    "much": 32218,
    "ony": 3793,
    "Author": 15051,
    "nsic": 16085,
    "\u0120Handbook": 19595,
    "\u0120regularly": 5578,
    "\u0120granul": 46353,
    "tile": 29354,
    "\u0120husbands": 29756,
    "\u0120ideally": 21614,
    "\u0120cytoplasm": 39358,
    "\u0120Brook": 15907,
    "\u0120Speech": 19315,
    "\u0120caller": 38448,
    "\u0120juxtap": 34874,
    "\u0120energ": 25605,
    "\u0120orchard": 36478,
    "\u0120incision": 30301,
    "\u0120\u00e3\u0123": 46673,
    "Works": 25474,
    "ped": 4479,
    "Region": 38279,
    "\u00d0\u00b4": 19263,
    "\u0120Neu": 42466,
    "\u0120analges": 32318,
    "\u0120curtains": 34269,
    "\u0120Agricultural": 15592,
    "\u0120done": 2294,
    "ophilic": 34237,
    "\u0120nickname": 26838,
    "\u0120ureth": 32251,
    "iffs": 13509,
    "\u0120Microb": 26179,
    "\u0120adapts": 41973,
    "\u0120uric": 38593,
    "\u0120Galveston": 48380,
    "\u0120Graphic": 26081,
    "\u0120mischie": 41150,
    "\u0120Bristol": 25984,
    "is": 271,
    "imedia": 12445,
    "Urban": 35004,
    "tax": 26522,
    "\u0120hex": 17967,
    "\u0120buil": 19906,
    "\u0120Apps": 35442,
    "\u0120whis": 15060,
    "ranial": 35196,
    "produced": 29328,
    "\u0120telesc": 10212,
    "abl": 38979,
    "\u0120coatings": 22841,
    "\u0120logger": 9145,
    "Imple": 19396,
    "\u0120Aires": 37415,
    "\u0120Leib": 36967,
    "\u0120d": 287,
    "uh": 6640,
    "\u0120screened": 25923,
    "atus": 4071,
    "\u0120ess": 1351,
    "\u0120niche": 13431,
    "\u0120thermostat": 35062,
    "\u0120twinkling": 48316,
    "\u0120chords": 25544,
    "\u0120predom": 10935,
    "\u0120Wide": 24059,
    "\u0120rationality": 37021,
    "\u0120H": 407,
    "sense": 38835,
    "\u0120comforting": 32868,
    "\u0120expertise": 7543,
    "Icon": 32695,
    "\u0120Antarctic": 16976,
    "\u0120expressions": 8208,
    "\u0120drained": 24586,
    "\u0120rediscovered": 47128,
    "\u0120reflective": 16748,
    "\u0120Abnormal": 40988,
    "\u0120unint": 15422,
    "egin": 8245,
    "stocks": 40757,
    "\u0120Disput": 41627,
    "\u0120ovaries": 28194,
    "\u0120unknow": 36173,
    "\u0120Fri": 35532,
    "\u0120rhyming": 42571,
    "sequent": 32303,
    "\u0120sterilization": 36924,
    "larg": 22503,
    "\u0120Europe": 1910,
    "\u0120praising": 39345,
    "fe": 4565,
    "sy": 1560,
    "\u0120Re": 942,
    "\u0120Democratic": 12507,
    "\u0120shrubs": 17498,
    "cipline": 25762,
    "\u0120marketplaces": 45167,
    "}-": 39949,
    "juna": 47943,
    "\u0120incompatible": 32340,
    "\u0120trif": 42803,
    "\u0120jewelry": 15949,
    "\u0120versatility": 23120,
    "\u0120Kad": 45269,
    "\u0120dying": 11888,
    "oscience": 32107,
    "\u010d\u010a\u0120\u0120\u0120\u0120\u0120\u0120\u0120\u0120\u0120\u0120\u0120\u0120\u0120\u0120\u0120": 8301,
    "\u0120Pract": 5609,
    "\u0120checklist": 29580,
    "\u0120annoyed": 43440,
    "\u0120transverse": 35635,
    "\u0120Catholics": 18756,
    "\u0120veggies": 19500,
    "\u0120criminals": 19631,
    "don": 12420,
    "priv": 28941,
    "osaic": 18313,
    "Probably": 45177,
    "\u0120expelled": 25781,
    "bet": 12297,
    "\u0120psycho": 29796,
    "\u0120sea": 3426,
    "\u0120McCarthy": 35206,
    "mons": 35212,
    "ixt": 4746,
    "\u0120eug": 35530,
    "Importance": 44782,
    "por": 1354,
    "growing": 19089,
    "\u00c5\u00be": 43421,
    "tr": 8489,
    "\u0120Gradually": 25072,
    "\u0120bets": 48200,
    "\u0120cave": 11840,
    "\u0120Aztec": 35313,
    "Country": 33911,
    "debug": 10004,
    "\u0120geometries": 40502,
    "rosso": 30323,
    "\u0120gri": 17201,
    "\u0120Colombia": 20198,
    "\u0120queries": 18795,
    "arge": 1224,
    "Taylor": 42504,
    "FR": 13422,
    "arnation": 24188,
    "\u0120Developed": 33874,
    "\u0120inviting": 17746,
    "omer": 9084,
    "\u0120depend": 3749,
    "\u0120merch": 10615,
    "\u0120accum": 6908,
    "\u0120brick": 14127,
    "\u0120percent": 1870,
    "\u0120rejo": 34853,
    "\u0120spokesman": 30994,
    "-%": 17661,
    "\u0120Top": 8992,
    "billion": 39109,
    "\u0120BU": 42687,
    "Myth": 30891,
    "oys": 9190,
    "skirts": 38494,
    "Hand": 10985,
    "\u0120Mira": 26918,
    "chains": 32285,
    "\u0120Senegal": 37317,
    "abolic": 22864,
    "tu": 24961,
    "\u0120Socrates": 25361,
    "fore": 892,
    "ormal": 27654,
    "\u0120nr": 46637,
    "\u0120pk": 42061,
    "\u0120witchcraft": 35235,
    "\u0120ADD": 31318,
    "\u0120Trek": 36400,
    "\u0120feas": 12269,
    "Memory": 26741,
    "\u0120Post": 5786,
    "\u0120preservatives": 35563,
    "\u0120tournaments": 42555,
    "inking": 2011,
    "\u0120suppresses": 49091,
    "ptical": 17148,
    "ushima": 26690,
    "\u0120steer": 27341,
    "dumps": 19567,
    "\u0120hazard": 8741,
    "rades": 17197,
    "brandt": 46122,
    "quez": 31804,
    "\u0120ambulance": 40039,
    "\u0120im": 444,
    "lets": 6770,
    "\u0120flipped": 35875,
    "\u0120Pasadena": 41774,
    "Values": 29887,
    "\u0120Fry": 33946,
    "\u0120necess": 1858,
    "\u00e4\u00be\u012d": 42912,
    "\u0120foodborne": 37472,
    "lywood": 16786,
    "\u0120Benn": 22575,
    "osher": 38995,
    "\u0120oily": 33905,
    "\u00e1\u00b8": 18982,
    "\u0120dissatis": 27153,
    "\u0120authenticated": 48879,
    "\u0120Ma": 7835,
    "\u0120motif": 14945,
    "\u0120preem": 46865,
    "igo": 15751,
    "\u0120Neur": 46967,
    "umpy": 35796,
    "\u0120sister": 10243,
    "compression": 36010,
    "\u0120injury": 5128,
    "\u0120tradem": 18854,
    "\u0120troposp": 46625,
    "Building": 20115,
    "\u0120cassava": 44878,
    "\u0120personalities": 19366,
    "\u0120\u00e8": 25792,
    "Commun": 15991,
    "\u0120Lost": 23532,
    "\u0120comprom": 7676,
    "\u0120exemptions": 39176,
    "\u0120SH": 16759,
    "\u0120Cash": 28797,
    "\u0120retain": 10756,
    "\u0120dark": 3605,
    "\u0120rockets": 25820,
    "\u0120intersects": 42993,
    "anta": 7687,
    "subprocess": 34009,
    "\u0120Availability": 45680,
    "\u0120Unity": 29826,
    "gi": 5526,
    "\u0120lots": 5890,
    "\u0120industrialization": 23623,
    "uten": 8775,
    "bes": 15454,
    "ccess": 1358,
    "\u0120hiding": 14959,
    "\u0120prosec": 17779,
    "\u0120barri": 5336,
    "\u0120punish": 17838,
    "Bell": 44281,
    "feats": 40358,
    "\u0120Pom": 21021,
    "\u0120deposit": 16932,
    "\u0120ASEAN": 40531,
    "erators": 21844,
    "col": 2283,
    "\u0120laundry": 25992,
    "\u0120philosophies": 25682,
    "\u0120task": 3856,
    "istor": 36442,
    "\u00d1\u0125": 14714,
    "istors": 35497,
    "\u0120pound": 16776,
    "\u0120parasitic": 25591,
    "\u0120holds": 6650,
    "Critical": 35147,
    "\u0120Checking": 45919,
    "\u0120dismiss": 12106,
    "Colon": 45920,
    "Whether": 16189,
    "\u0120protruding": 45707,
    "translation": 34883,
    "\u0120ransomware": 37445,
    "\u0120Spir": 42763,
    "\u0120civilisation": 39682,
    "pet": 6322,
    "Thomas": 23483,
    "\u0120articulation": 36068,
    "\u0120denom": 14393,
    "\u0120occupational": 15796,
    "\u0120widow": 23632,
    "\u00ce\u00b6": 30273,
    "amazon": 32504,
    "\u0120HE": 18209,
    "\u0120Moist": 36083,
    "\u0120assessments": 10235,
    "\u0120deed": 26520,
    "itches": 9988,
    "urally": 12013,
    "\u0120attuned": 44066,
    "\u0120duality": 45798,
    "\u0120bucket": 17263,
    "\u0120pans": 30858,
    "\u0120fits": 12638,
    "+\\": 42639,
    "ploys": 18191,
    "\u0120crucified": 41839,
    "\u0120rel": 716,
    "otives": 34639,
    "\u0120Ecology": 18524,
    "\u0120wond": 2964,
    "nies": 47825,
    "----------------------------------------": 48609,
    "les": 735,
    "hh": 36625,
    "ricane": 12048,
    "Respons": 43151,
    "\u0120Being": 9415,
    "\u0120Git": 24156,
    "\u0120cockro": 30698,
    "\u00e5\u0132\u0130": 46667,
    "icit": 5490,
    "\u0120completed": 5371,
    "occup": 18264,
    "\u0120Witnesses": 48308,
    "\u0120patriotic": 32745,
    "idespread": 6940,
    "\u0120shade": 11615,
    "\u0120stepper": 44011,
    "\u0120intermediate": 14019,
    "\u0120Evaluating": 32709,
    "anas": 12310,
    "\u0120Pharaoh": 24131,
    "\u0120dissip": 26253,
    "\u0120json": 7221,
    "\u0120riddle": 46724,
    "HTML": 27769,
    "\u0120inhale": 38168,
    "\u0120Baum": 45392,
    "cci": 42848,
    "\u0120Difficult": 23574,
    "\u0120Flora": 34411,
    "\u0120vomiting": 13382,
    "inant": 5436,
    "\u0120Jr": 11547,
    "holder": 12216,
    "olding": 22724,
    "\u0120adequ": 6005,
    "\u0120(:": 40565,
    "\u0120hypert": 12768,
    "Sample": 25379,
    "\u0120owning": 26739,
    "docker": 36015,
    "\u0120barely": 16119,
    "\u0120Gloss": 34550,
    "\u0120water": 913,
    "However": 4460,
    "antib": 41527,
    "\u0120brings": 6633,
    "\u0120')": 24123,
    "\u0120echo": 13689,
    "\u0120institution": 5886,
    "\u0120restart": 26389,
    "\u0120monasteries": 28868,
    "LAN": 28649,
    ".'\"": 40269,
    "\u0120Democrat": 32397,
    "ascar": 23872,
    "\u0120irregularities": 37676,
    "\u0120Brunswick": 32010,
    "\u0120Illustrated": 35261,
    "\u0120derive": 19157,
    "\u0120gig": 16000,
    "\u0120IMPLIED": 44764,
    "\u0120negative": 3524,
    "\u0120submissions": 29097,
    "md": 13738,
    "\u0120Prussian": 35727,
    "\u0120Sulf": 39711,
    "population": 23091,
    "\u0120gastro": 13114,
    "\u0120token": 9624,
    "opus": 20290,
    "\u0120Rex": 44917,
    "\u0120_,": 21779,
    "\u0120protested": 39769,
    "\u0120tilt": 27067,
    "\u0120efficacy": 12392,
    "\u0120exponentially": 29283,
    "cycle": 12022,
    "\u0120dynam": 3798,
    "\u0120geothermal": 24336,
    "\u0120\u0120\u0120\u0120": 289,
    "\u0120Sensing": 38303,
    "\u0120depictions": 24950,
    "ajor": 1618,
    "\u0120Sector": 36356,
    "\u0120bir": 1917,
    "\u0120inevitably": 19784,
    "\u0120insomnia": 19871,
    "\u0120Pl": 1652,
    "sensitive": 21674,
    "OB": 24554,
    "xs": 28345,
    "\u0120circuitry": 32952,
    "\u0120companionship": 34623,
    "\u0120hedge": 24545,
    "\u0120lymphoma": 30824,
    "\u0120domin": 26794,
    "\u0120Holl": 42203,
    "\u0120debug": 19855,
    "\u0120travel": 2827,
    "\u0120Dot": 40629,
    "\u0120Hence": 10987,
    "\u0120res": 499,
    "\u0120Billy": 26627,
    "ordial": 35586,
    "\u0120Axis": 31328,
    "\u0120Block": 14791,
    "\u0120civic": 16930,
    "def": 1604,
    "\u00e5\u0131\u00b7": 48980,
    "\u0120Wind": 6234,
    "\u0120breaker": 35491,
    "\u0120denominations": 28231,
    "Bi": 19514,
    "\u0120GIS": 20658,
    "\u0120discouraged": 24881,
    "\u0120Pratt": 42141,
    "\u0120dr": 1387,
    "\u0120Sarah": 8165,
    "\u0120Sart": 46931,
    "\u0120retreated": 36655,
    "\u0120grooves": 36546,
    "Mas": 40715,
    "\u0120Reformed": 45467,
    "\u0120landscape": 5015,
    "\u0120plus": 8055,
    "\u0120convolution": 29714,
    "\u0120recycle": 20571,
    "\u0120dermat": 16015,
    "\u0120Revere": 31206,
    "\u0120glaucoma": 24760,
    "\u0120si": 26820,
    "\u0120sole": 6513,
    "\u0120suffers": 21101,
    "\u0120reed": 34229,
    "orgetown": 40040,
    "read": 1040,
    "\u0120thirds": 31233,
    "Internet": 25636,
    "\u0120congestion": 19678,
    "Fe": 11114,
    "\u0120arguably": 22867,
    "\u0120shiny": 20581,
    "\u0120Hull": 35180,
    "ASC": 42304,
    "\u010a\u010a\u0120\u0120\u0120": 1004,
    "\u0120Sacramento": 33294,
    "\u0120followers": 12381,
    "\u0120tongue": 10663,
    "\u0120wrinkles": 33329,
    "\"{": 14737,
    "\u0120Bavaria": 43276,
    "\u0120Ev": 5235,
    "\u0120Facial": 44925,
    "]]": 7896,
    "\u0120edible": 17748,
    "othschild": 48755,
    "\u0120question": 1962,
    "\u0120Di": 4721,
    "\u0120rested": 32763,
    "\u0120toys": 9173,
    "\u0120Organization": 8683,
    "\u0120waters": 5656,
    "Subject": 26652,
    "\u0120Environ": 33364,
    "\u0120protection": 3542,
    "\u0120Interstate": 40910,
    "\u0120rept": 16133,
    "\u0120exceptionally": 23751,
    "\u0120sparked": 16768,
    "Chief": 32637,
    "\u0120fury": 46180,
    "\u0120broad": 2932,
    "\u0120parch": 35225,
    "sentence": 28205,
    "Ground": 36665,
    "\u0120\u00c2\u00b0": 13518,
    "\u0120Located": 30517,
    "word": 3002,
    "\u0120finger": 8400,
    "\u0120fit": 3230,
    "\u00e6\u012a\u0132": 35094,
    "\u0120by": 411,
    "\u0120lifting": 17168,
    "phy": 17581,
    "atable": 22683,
    "\u0120Window": 28426,
    "\u0120Neurolog": 25194,
    "\u0120arab": 46179,
    "wee": 48994,
    "\u0120Tag": 22786,
    "\u0120butt": 12098,
    "\u0120BY": 18172,
    "omega": 39387,
    "\u0120Leaf": 26650,
    "Harv": 33799,
    "\u0120Trying": 43502,
    "\u0120caching": 48002,
    "\u0120psychiatry": 33373,
    "cook": 26681,
    "arently": 23318,
    "dess": 11411,
    "zan": 37081,
    "Industrial": 40298,
    "\u0120arisen": 34501,
    "mouth": 14183,
    "\u0120relevant": 4006,
    "\u0120hardships": 23114,
    "self": 771,
    "\u0120symbolized": 37664,
    "\u0120tyranny": 31818,
    "URE": 15672,
    "\u0120Tunnel": 37788,
    "accharides": 33754,
    "\u0120Ophthalm": 38983,
    "\u0120alveolar": 46028,
    "\u0120fatality": 42553,
    "\u0120ANY": 16238,
    "Growth": 45551,
    "\u0120biofuel": 34973,
    "\u0120ig": 33496,
    "orientation": 29772,
    "anya": 37430,
    "\u0120light": 1420,
    "wers": 32121,
    "\u0120gif": 9392,
    "izes": 3215,
    "\u0120(+": 30425,
    "\u0112": 206,
    "\u0120Empowerment": 37769,
    "\u0120convection": 33106,
    "\u0120xml": 23476,
    "asp": 5352,
    "\u0120unknowingly": 43361,
    "bott": 29342,
    "\u0120moon": 6783,
    "Gl": 10484,
    "\u0120brother": 5717,
    "\u0120rebound": 43021,
    "\u00c3\u0139": 20628,
    "baz": 45511,
    "riber": 29557,
    "\u0120Villa": 40164,
    "\u0120avant": 39976,
    "\u0120ceremony": 13708,
    "\u0120outfile": 39901,
    "\u0120whispers": 37860,
    "\u0120padded": 43916,
    "\u0120clover": 36030,
    "ally": 682,
    "\u0120individuals": 2048,
    "\u0120boasting": 48170,
    "ims": 14291,
    "gging": 19569,
    "\u0120Anti": 14949,
    "\u0120Tian": 38117,
    "\u0120downtime": 34684,
    "\u0120opportun": 2023,
    "\u0120pvproperty": 43420,
    "\u0120PV": 15007,
    "\u0120Ultra": 39960,
    "ressions": 12851,
    "\u0120panic": 14455,
    "texts": 38424,
    "enna": 13451,
    "blu": 39321,
    "\u0120assay": 22587,
    "KK": 45572,
    "After": 4582,
    "\u0120atrial": 35020,
    "\u0120chilled": 43392,
    "\u0120straightforward": 14857,
    "\u0120dashboard": 38354,
    "\u0120experiencing": 7752,
    "\u0120Fre": 7253,
    "\u0120privately": 22061,
    "\u0120seized": 20132,
    "\u0120honor": 7532,
    "\u0120normally": 6739,
    "\u0120parish": 16596,
    "MAR": 32161,
    "\u0120started": 2841,
    "\u0120Processes": 27038,
    "inction": 7025,
    "\u0120MU": 39987,
    "\u0120flights": 17043,
    "\u0120Tokyo": 19081,
    "\u0120Recogn": 12686,
    "\u0120Jules": 46576,
    "\u0120hp": 40756,
    "\u0120melan": 13973,
    "\u00ef\u00bc\u012e": 12831,
    "udence": 24850,
    "\u0120Claude": 36373,
    "\u0120manifestation": 23928,
    "Reviewed": 47688,
    "iothe": 19552,
    "\u0120Bro": 6874,
    "\u0120breeders": 30146,
    "horizontal": 31048,
    "\u0120specification": 19886,
    "Expression": 34891,
    "ennial": 19963,
    "ensible": 33607,
    "\u0120emphasise": 48318,
    "\u0120measurements": 7579,
    "\u0120peripher": 13009,
    "\u0120pregnancy": 6304,
    "\u0120magma": 28578,
    "\u0120dispatch": 37736,
    "\u0120thrive": 9591,
    "toxic": 22346,
    "\u0120Aw": 26331,
    ".....": 30298,
    "rokes": 36274,
    "Make": 12847,
    "ingles": 24434,
    "\u0120antibodies": 12263,
    "\u0120follicle": 42297,
    "\u0120hom": 4500,
    "eeze": 14845,
    "percent": 18823,
    "\u0120Myth": 20192,
    "Grant": 39294,
    "\u0120inspire": 8368,
    "\u0120irre": 12424,
    "plicates": 25042,
    "hetic": 4612,
    "\u0120modification": 14652,
    "\u0120up": 614,
    "audi": 15313,
    "pure": 33458,
    "ractive": 36796,
    "\u0120su": 393,
    "\u0120Abdullah": 44225,
    "\u0120utens": 23596,
    "rayer": 47247,
    "que": 3806,
    "chrom": 24251,
    "\u0120sne": 13514,
    "urls": 20936,
    "uto": 16649,
    "\u0120snowfl": 38616,
    "\u0120upload": 13484,
    "around": 17862,
    "\u0120\"_": 21358,
    "\u0120assertiveness": 46486,
    "\u0120voluntary": 14604,
    "ocument": 32099,
    "ountain": 20264,
    "\u0120atherosclerosis": 32549,
    "\u0120Americans": 3913,
    "ior": 1405,
    "\u0120Classics": 46874,
    "\u0120assign": 3812,
    "\u0120confined": 14598,
    "\u0120professionals": 4991,
    "\u0120breakthrough": 14057,
    "\u0120bundles": 36189,
    "CoV": 23954,
    "bags": 41874,
    "angs": 26574,
    "encies": 3233,
    "\u0120Horiz": 20773,
    "hore": 44227,
    "\u0120devastation": 30375,
    "\u0120footnote": 39594,
    "\u0120grey": 13917,
    "\u0120devote": 21106,
    "manifest": 39744,
    "\u0120exhibit": 8328,
    "ecal": 41794,
    "\u0120occupying": 27501,
    "\u0120phytoplankton": 36975,
    "\u0120Nagasaki": 47941,
    "ashi": 19515,
    "att": 2192,
    "\u0120NHS": 24302,
    "\u0120eldest": 30309,
    "\u0120deb": 2802,
    "\u0120job": 2288,
    "\u0120organs": 7780,
    "\u0120settle": 5767,
    "\u0120wal": 9747,
    "ifera": 33430,
    "ixty": 17796,
    "\u0120Hinduism": 20632,
    "\u0120expect": 1959,
    "\u0120courthouse": 43156,
    "\u0120fr": 10046,
    "cele": 41999,
    "STRING": 36075,
    "\u0120laser": 9122,
    "\u0120bulge": 42159,
    "\u0120plea": 37411,
    "\u0120accumulation": 13944,
    "\u0120taxpayers": 29511,
    "!\"": 6653,
    "\u0120contexts": 8861,
    "\u0120earlier": 3685,
    "\u0120vital": 4334,
    "\u0120curious": 7436,
    "Pear": 46532,
    "\u0120Dw": 34694,
    "\u0120savory": 33285,
    "\u0120sprouting": 45549,
    "Brit": 17717,
    "\u00c3\u00ac": 44730,
    "ouch": 12045,
    "\u0120coach": 17159,
    "\u0120shovel": 31490,
    "gemon": 27816,
    "iterations": 35219,
    "\u0120marine": 6562,
    "\u0120ell": 17642,
    "\u0120tally": 43167,
    "idians": 40200,
    "\u0120Experiment": 16757,
    "\u0120Ayurvedic": 41077,
    "\u0120ass": 757,
    "\u0120stores": 7821,
    "WC": 28827,
    "\u0120bays": 38316,
    "ate": 368,
    "River": 46860,
    "\u0120Storytelling": 29547,
    "\u0120Tool": 15985,
    "odge": 14275,
    "rics": 5063,
    "drop": 9467,
    "\u0120Land": 6928,
    "\u0120stink": 41876,
    "\u0120annuals": 48584,
    "IRST": 35931,
    "Putting": 43273,
    "column": 8126,
    "izing": 1829,
    "\u0120Diamond": 28972,
    "\u0120Ptolemy": 40391,
    "\u0120publicity": 30066,
    "\u0120celebrates": 25202,
    "inoza": 46466,
    "inian": 12289,
    "enthal": 48920,
    "inputs": 14843,
    "\u0120Veg": 30938,
    "\u0120Libraries": 23582,
    "\u0120surrounds": 26553,
    "\u0120Mixing": 47046,
    "\u0120piled": 46110,
    "\u0120arthritis": 11063,
    "iy": 12771,
    "Pi": 41967,
    "\u0120impractical": 33862,
    "(((": 48519,
    "\u0120anorexia": 34405,
    "REQU": 30804,
    "spect": 16226,
    "vre": 36462,
    "\"]:": 23024,
    "scientists": 34624,
    "\u0120linen": 28522,
    "\u0120mix": 3412,
    "\u0120reception": 20629,
    "\u0120bot": 6543,
    "Ger": 47005,
    "\u0120grave": 14553,
    "\u0120plas": 44300,
    "ophysiology": 34012,
    "achi": 26347,
    "\u0120reproduced": 24725,
    "\u0120spir": 8477,
    "\u0120minors": 33419,
    "\u0120Casc": 32177,
    "Available": 30706,
    "\u0120morph": 10603,
    "\u0120stimulated": 24181,
    "\u0120appealed": 30075,
    "\u0120merely": 7475,
    "7": 39,
    "Get": 6197,
    "\u0120Bluff": 45993,
    "\u0120desks": 36115,
    "\u0120erotic": 37174,
    "\u0120cra": 3722,
    "Iss": 30011,
    "aneously": 21893,
    "\u0120dominated": 12742,
    "\u0120pix": 10427,
    "\u0120Cultures": 30261,
    "\u0120Devil": 32288,
    "\u0120irrigated": 36144,
    "\u0120maximum": 5428,
    "\u0120lesson": 5040,
    "\u0120rick": 46962,
    "omile": 47831,
    "\u0120subord": 19730,
    "compl": 34728,
    "\u0120Saxon": 34139,
    "\u0120scandal": 26467,
    "\u0120stone": 5692,
    "iveness": 4391,
    "\u0120penetrating": 34835,
    "\u0120brittle": 27826,
    "\u0120tailor": 22605,
    "The": 504,
    "\u0120supplementation": 19491,
    "\u0120tortoise": 39908,
    "alid": 15594,
    "ategory": 10480,
    "\u0120Eight": 19835,
    "\u0120cms": 33360,
    "\u0120painkillers": 41101,
    "\u0120pedagogy": 28391,
    "\u0120artic": 13757,
    "\u0120potable": 45822,
    "\u0120scream": 47059,
    "surv": 41552,
    "pd": 20207,
    "\u0120frig": 31512,
    "\u0120trying": 3396,
    "\u0120degeneration": 21373,
    "\u0120Duc": 32499,
    "Spe": 15024,
    "\u0120Abuse": 20080,
    "\u0120viewpoint": 22072,
    "\u0120elab": 10963,
    "\u0120jealous": 23220,
    "Ra": 16171,
    "commons": 35990,
    "\u0120Dragon": 23219,
    "selector": 42116,
    "\u0120Recreation": 34689,
    "French": 22243,
    "earch": 2315,
    "\u0120bonuses": 48132,
    "\u0120pier": 19189,
    "\u0120radios": 31425,
    "\u0120surve": 7157,
    "\u0120Bush": 13363,
    "burn": 11302,
    "Pur": 26578,
    "PRI": 48700,
    "\u0120Ghost": 26148,
    "\u0120Kiev": 49068,
    "emen": 15624,
    "iles": 3481,
    "\u0120Kit": 14932,
    "\u0120Butler": 26573,
    "\u0120Prel": 30296,
    "\u0120Saturday": 14986,
    "\u0120Dermatology": 47326,
    "\u0120Sister": 42287,
    "Image": 9268,
    "\u0120Vict": 22381,
    "\u0120already": 2221,
    "ESCRIPT": 34796,
    "\u0120balcon": 37243,
    "\u0120carbox": 44713,
    "\u0120condu": 32151,
    "\u0120contin": 1190,
    "Many": 5315,
    "\u0120cre": 935,
    "orbidity": 45389,
    "Ops": 40393,
    "\u0120expectancy": 19060,
    "\u0120recruiting": 30651,
    "rophes": 41866,
    "\u0120saut\u00c3\u00a9": 39465,
    "\u0120EVENT": 46024,
    "ummies": 31346,
    "growth": 19477,
    "\u0120Barriers": 35404,
    "ovenants": 43353,
    "\u0120phases": 12439,
    "amele": 39975,
    "\u0120encountered": 10342,
    "\u0120compan": 2873,
    "\u0120joins": 25904,
    "\u0120resolve": 10575,
    "\u0120studied": 6030,
    "\u0120misfortune": 41385,
    "\u0120silenced": 42735,
    "racts": 48654,
    "\u0120stunt": 24469,
    "\u0120tenure": 16955,
    "\u0120Paint": 31829,
    "\u0120troop": 30790,
    "ospel": 11212,
    "asa": 14852,
    "\u0120ardent": 46047,
    "\u0120signaled": 46644,
    "ndt": 48887,
    "\u0120morals": 28734,
    "EA": 14555,
    "\u0120saved": 8773,
    "\u0120anal": 1338,
    "\u0120finding": 4212,
    "\u0120sucked": 48940,
    "student": 25864,
    "\u0120neighbouring": 25945,
    "\u0120Should": 9602,
    "\u0120concrete": 7257,
    "\u0120abdominal": 14184,
    "/).": 35211,
    "phosph": 46048,
    "\u0120contract": 4214,
    "\u0120Pictures": 29918,
    "according": 34169,
    "Diet": 30272,
    "\u0120Homeland": 42956,
    "\u0120axle": 47839,
    "fecture": 38491,
    "\u0120possessing": 27859,
    "\u0120Cox": 27815,
    "\u0120clock": 9191,
    "\u0120peach": 41638,
    "\u0120ounces": 22320,
    "\u0120perpet": 9164,
    "av": 565,
    "intend": 18903,
    "Layout": 16340,
    "\u0120Chatt": 47495,
    "\u0120Presidential": 26775,
    "\u0120anonymously": 48841,
    "pound": 33116,
    "fel": 34520,
    "hack": 48765,
    "aval": 16263,
    "\u0120cleanse": 35684,
    "\u0120ind": 641,
    "\u0120Marin": 43749,
    "\u0120Ter": 7274,
    "\u0120contrad": 10973,
    "\u0120homeostasis": 32319,
    "ances": 1436,
    "\u0120phrase": 8715,
    "\u0120tick": 8531,
    "annie": 48913,
    "stated": 31916,
    "raulic": 16411,
    "\u0120cryptography": 31020,
    "izens": 33034,
    "\u0120teeth": 4077,
    "bilt": 39531,
    "?\"": 4817,
    "\u0120torso": 36659,
    "\u0120two": 827,
    "aughed": 30791,
    "CAR": 36461,
    "\u0120Heritage": 10628,
    "\u0120authentication": 17082,
    "oad": 1412,
    "ovic": 38806,
    "\u0120panc": 15325,
    "cribed": 24931,
    "Neg": 27248,
    "%-": 40185,
    "],[": 28500,
    "ISTORY": 39184,
    "story": 17375,
    "ury": 1293,
    "\u0120Mile": 37513,
    "arie": 43924,
    "get": 726,
    "\u010a\u0120\u0120\u0120\u0120\u0120\u0120\u0120\u0120\u0120": 7338,
    "\u0120DEC": 36128,
    "\u0120Habsburg": 44128,
    "enger": 9333,
    "\u0120Proced": 21066,
    "ividual": 1179,
    "\u0120Juice": 48104,
    "\u0120Up": 5445,
    "<reponame>": 4,
    "\u0120ruth": 34347,
    "\u0120adam": 45893,
    "\u0120rut": 43602,
    "\u0120installation": 10686,
    "cca": 16063,
    "pletion": 17699,
    "hor": 1444,
    "\u0120Yosh": 46203,
    "\u0120caries": 33831,
    "cart": 33836,
    "\u0120ports": 14796,
    "\u0120sustainability": 7496,
    "\u0120psi": 36298,
    "Rem": 7224,
    "\u0120extr": 11971,
    "\u0120ut": 2282,
    "\u0120shoots": 23202,
    "xxx": 46285,
    "inalg": 25615,
    "\u0120iterative": 33018,
    "mable": 31740,
    "\u0120fascia": 39197,
    "\u0120macro": 12944,
    "\u0120quick": 2365,
    "\u0120unexpectedly": 27700,
    "symbol": 21167,
    "\u0120Presbyter": 27801,
    "\u0120Transl": 28872,
    "\u0120Rob": 7203,
    "Publisher": 34172,
    "\u0120Univ": 36594,
    "\u0120generational": 44487,
    "heim": 18453,
    "\u0120trivia": 35046,
    "doors": 12304,
    "\u0120pioneers": 21310,
    "\u0120suicidal": 27787,
    "\u0120Neptune": 30461,
    "\u0120labyrinth": 35689,
    "yd": 4198,
    "KB": 37166,
    "\u0120inspection": 14789,
    "\u0120hooked": 31941,
    "\u0120validate": 15063,
    "\u0120Readers": 27780,
    "\u0120carbohyd": 9537,
    "\u0120Ada": 34099,
    "\u0120papers": 5057,
    "\u0120act": 705,
    "\u0120longevity": 17612,
    "\u0120alf": 36524,
    "\u0120crash": 14388,
    "\u0120part": 599,
    "\u0120Dud": 37956,
    "\u0120recurrent": 20555,
    "tune": 37458,
    "\u0120arbitrary": 18040,
    "\u0120investigating": 13623,
    "utable": 17504,
    "(\"\\": 16112,
    "\u0120Bradford": 35900,
    "DELETE": 47593,
    "helpers": 35976,
    "otomy": 27363,
    "univers": 38021,
    "\u0120allure": 33999,
    "\u0120final": 3403,
    "edo": 32243,
    "\u0120postwar": 34084,
    "matter": 38604,
    "UST": 19200,
    "\u00e7\u012b": 33913,
    "\u0120Respond": 30417,
    "Dou": 32232,
    "undy": 44198,
    "finder": 31163,
    "arange": 19486,
    "\u0120Daniel": 10789,
    "\u0120Technical": 17022,
    "\u00ef\u00b8": 30660,
    "\u0120cubes": 26162,
    "\u0120dispat": 27795,
    "\u0120asset": 11862,
    "\u0120esteemed": 34816,
    "\u0120gun": 6341,
    "details": 21322,
    "poor": 30233,
    "ridor": 47975,
    "Java": 39570,
    "\u0120obliged": 25211,
    "\u0120sorrow": 25514,
    "\u0120thereby": 6914,
    "\u0120spheres": 21684,
    "\u0120turkeys": 41799,
    "\u0120fairness": 14832,
    "actyl": 42933,
    "\u0120Thin": 41951,
    "ular": 755,
    "\u0120witnesses": 18088,
    "\u0120Affirm": 48261,
    "\u0120Nut": 21189,
    "\u0120spine": 11465,
    "\u0120trading": 10263,
    "normalize": 32343,
    "\u0120Samsung": 43919,
    "\u0120tolerant": 24164,
    "\u0120actress": 37479,
    "\u0120poisoned": 36064,
    "\u0120claims": 5912,
    "\u0120repell": 26036,
    "cup": 28627,
    ",-": 10790,
    "ESS": 9248,
    "icists": 37132,
    "\u0120==": 1758,
    "\u0120Rodrig": 31548,
    "ALL": 12631,
    "\u0120Embrace": 26080,
    "\u0120abolitionist": 37414,
    "nering": 31658,
    "/),": 45263,
    "\u0120XYZ": 47002,
    "\u0120Mog": 38338,
    "\u0120Features": 23308,
    "\u0120bends": 37331,
    "belie": 23282,
    "\u00e7\u0130": 40072,
    "Good": 14229,
    "\u0120:)": 33480,
    "\u0120Rate": 20841,
    "\u0120Integrative": 47639,
    "\u0120Witness": 31846,
    "\u0120Return": 13632,
    "\u0120Orange": 19923,
    "Ben": 14414,
    "\u0120ingred": 4744,
    "\u0120Criticism": 37376,
    "\u0120magnitudes": 46367,
    "\u0120explicit": 7719,
    "\u0120implicit": 17141,
    "\u0120masked": 31737,
    "\u0120Botanical": 36084,
    "\u00c3\u00b5": 44511,
    "\u0120Bringing": 41140,
    "\u0120Immun": 16139,
    "compatible": 24050,
    "\u0120Brotherhood": 41398,
    "\u0120Tele": 14308,
    "\u0120Fran\u00c3\u00a7ois": 45141,
    "\u0120Treatment": 10389,
    "\u0120Appendix": 26992,
    "\u0120authorized": 16280,
    "listdir": 29922,
    "\u00b4": 129,
    "\u0120diaper": 48779,
    "planned": 32068,
    "iliary": 19828,
    "\u0120labou": 39714,
    "\u0120maj": 14957,
    "\u0120beers": 44230,
    "\u0120pore": 33953,
    "\u0120sor": 14401,
    "oufl": 26130,
    "\u0120purposefully": 48634,
    "\u0120forcing": 14072,
    "\u0120ending": 10808,
    "cler": 12906,
    "roscopic": 38441,
    "\u0120accusations": 30795,
    "padding": 30148,
    "\u0120interpreters": 37115,
    "\u010a\u0120\u0120\u0120\u0120\u0120\u0120\u0120\u0120\u0120\u0120\u0120\u0120\u0120\u0120\u0120\u0120\u0120\u0120\u0120\u0120\u0120\u0120\u0120\u0120\u0120\u0120\u0120\u0120\u0120\u0120\u0120\u0120\u0120\u0120\u0120\u0120\u0120\u0120\u0120\u0120\u0120\u0120\u0120\u0120\u0120\u0120\u0120\u0120": 9225,
    "\u0120mortgage": 22353,
    "ad": 344,
    "\u00cf\u0122": 18708,
    "\u0120whom": 5337,
    "\u0120Adv": 7044,
    "\u0120Orion": 29318,
    "Az": 32789,
    "and": 397,
    "rnn": 37130,
    "\u0120Biodiversity": 24997,
    "\u0120Represent": 11722,
    "\u0120Travel": 15179,
    "\u0120exercises": 6379,
    "\u0120large": 1507,
    "\u0120perfected": 39841,
    "\u0120skies": 20215,
    "\u0120Aph": 38068,
    "meat": 39508,
    "prene": 8564,
    "\u0120occurrence": 12939,
    "Mill": 27052,
    "\u0120gamb": 16001,
    "\u0120masterpieces": 25977,
    "\u0120scor": 35774,
    "\u0120identity": 3905,
    "\u0120Samoa": 42955,
    "\u0120spasms": 36444,
    "\u0120Truth": 17190,
    "\u0120eukary": 29804,
    "\u0120marker": 12187,
    "iors": 11580,
    "\u0120GPU": 29593,
    "ach": 554,
    "anum": 48415,
    "feres": 32874,
    "\u0120Josiah": 48266,
    "ood": 528,
    "\u0120impress": 23019,
    "\u0120doi": 7497,
    "cussions": 29370,
    "igail": 36503,
    "\u0120archaeological": 13753,
    "\u0120historical": 2844,
    "\u0120parallelism": 48357,
    "oea": 41811,
    "\u0120profits": 12314,
    "\u0120sugars": 13925,
    "\u0120warn": 7432,
    "\u0120wipes": 43917,
    "\u0120astronaut": 13790,
    "\u0120Carpenter": 43827,
    "efit": 25892,
    "\u0120Harmonyville": 33177,
    "\u0120Modified": 34567,
    "ailable": 8004,
    "\u0120framed": 27529,
    "\u0120footprint": 11662,
    "\u0120Wat": 19047,
    "orted": 8146,
    "irus": 7382,
    "\u0120assumes": 16616,
    "\u0120campaigns": 10863,
    "\u0120Word": 8013,
    "\u0120congrat": 45790,
    "COMP": 30383,
    "\u0120Buckingham": 45927,
    "\u0120SHA": 48677,
    "\u0120Kah": 36163,
    "\u0120backup": 16793,
    "\u0120Hum": 10085,
    "\u0120engine": 2327,
    "\u0120neurology": 46528,
    "\u0120physique": 48974,
    "\u0120sage": 19113,
    "\u0120Leban": 19042,
    "\u0120AUTH": 42520,
    "\u0120Sand": 9471,
    "whether": 25788,
    "\u0120Eurasia": 40927,
    "\u0120lod": 22100,
    "\u0120lover": 26156,
    "\u0120Philist": 49002,
    "\u0120landslides": 38587,
    "\u0120comply": 16484,
    "\u0120domest": 27564,
    "Top": 14777,
    "\u0120while": 979,
    "\u0120hummingbirds": 43855,
    "\u0120Ded": 39088,
    "\u0120mental": 2898,
    "}]": 31845,
    "\u0120Malt": 39662,
    "\u0120arousal": 36111,
    "parameters": 11582,
    "Educ": 16420,
    "Preparation": 45047,
    "cial": 2414,
    "\u0120conceive": 28223,
    "anci": 45607,
    "\u0120buttons": 15580,
    "\u0120droughts": 23913,
    "ounding": 14322,
    "ignment": 12766,
    "Humans": 33349,
    "Ur": 24183,
    "coord": 15040,
    "\u0120Forestry": 30506,
    "\u0120Northeast": 25364,
    "\u0120Wright": 16043,
    "\u0120brought": 3621,
    "\u0120logarithmic": 48569,
    "\u0120principals": 32563,
    "\u0120uncon": 14998,
    "\u0120voiced": 37286,
    "\u0120cycle": 4834,
    "\u0120developer": 17848,
    "\u0120\u00e2\u0122\u0135": 816,
    "bsites": 35755,
    "\u0120squadron": 38586,
    "illed": 2182,
    "ilers": 33972,
    "\u0120aqueous": 31839,
    "\u0120eventual": 19820,
    "\u0120rider": 27884,
    "mor": 28585,
    "\u0120preschoolers": 32136,
    "ating": 674,
    "snow": 45606,
    "\u0120solids": 19866,
    "\u0120Boston": 9400,
    "\u0120formulate": 27683,
    "\u0120stumble": 37604,
    "\u0120Croat": 21567,
    "rary": 8079,
    "manac": 46729,
    "\u0120Powder": 39642,
    "sector": 32492,
    "\u0120Ven": 8994,
    "\u0120navigate": 6776,
    "osity": 10553,
    "?!": 17593,
    "activ": 47927,
    "ABILITY": 27085,
    "\u0120ch": 410,
    "caps": 40700,
    "\u0120Further": 4020,
    "rend": 13029,
    "\u0120didn": 3683,
    "\u0120Bees": 35710,
    "igers": 23690,
    "visual": 25353,
    "\u0120Balkans": 37548,
    "\u0120lasts": 16519,
    "\u0120scholarships": 28359,
    "\u0120?": 9148,
    "autiful": 44682,
    "\u0120External": 23706,
    "\u0120Laf": 36150,
    "arr": 2110,
    "icated": 4769,
    "\u0120Guided": 41750,
    "\u0120espionage": 39460,
    "render": 12033,
    "\u00c5": 144,
    "oard": 11868,
    "\u0120candidates": 9266,
    "\u0120inspecting": 44743,
    "\u0120sensory": 10474,
    "\u0120avocados": 36372,
    "\u0120cerebral": 20260,
    "+)": 34764,
    "Encourage": 43248,
    "\u0120Epidem": 22574,
    "Corn": 35068,
    "\u0120Kale": 47627,
    "istered": 24611,
    "\u0120exclusive": 13076,
    "cules": 6355,
    "\u0120another": 1372,
    "_\"": 46671,
    "\u0120focusing": 7281,
    "\u0120psychiatrist": 32934,
    "\u0120revolt": 24030,
    "obe": 13188,
    "cookie": 42833,
    "IGN": 24537,
    "Looking": 20552,
    "State": 10024,
    "\u0120Qin": 43653,
    "\u0120encouraged": 7828,
    "\u0120knob": 43711,
    "elfth": 28185,
    "\u0120big": 2066,
    "\u00c7": 146,
    "\u0120Occur": 43992,
    "\u0120lentils": 32325,
    "metal": 30276,
    "\u0120preserve": 7347,
    "ffiti": 27666,
    "\u0120unchanged": 23814,
    "\u0120Hag": 43391,
    "Anderson": 47132,
    "placing": 39202,
    "arine": 24546,
    "\u0120Management": 5827,
    "\u0120Arist": 12625,
    "Bind": 47527,
    "\u0120Movies": 46805,
    "\u0120Sparta": 45292,
    "Crypt": 41461,
    "iled": 5323,
    "\u0120northern": 5761,
    "\u0120attractiveness": 44719,
    "George": 23958,
    "\u0120organ": 1192,
    "\u0120quotations": 33229,
    "\u0120convolutional": 45246,
    "\u0120Controlled": 42465,
    "\u0120Suffolk": 45660,
    "\u0120touch": 5895,
    "Nobody": 46844,
    "\u0120years": 929,
    "\u0120Threats": 40963,
    "onts": 15176,
    "Gs": 18277,
    "\u0120Astronomy": 24840,
    "\u0120parsley": 33374,
    "event": 9586,
    "tis": 34818,
    "rapist": 38359,
    "\u0120ecologically": 35448,
    "\u0120extract": 4930,
    "\u0120glutathione": 38943,
    "\u0120imminent": 27472,
    "\u0120subprocess": 19031,
    "acer": 41492,
    "\u0120rhythmic": 25779,
    "\u0120talking": 5348,
    "\u0120hear": 4875,
    "\u0120'''": 7855,
    "\u0120meteorites": 41977,
    "\u0120ocular": 33625,
    "\u0120Macbeth": 28610,
    "\u0120'+": 28640,
    "Dog": 44378,
    "\u0120Tan": 19557,
    "igned": 8539,
    "\u0120Mixed": 34326,
    "\u0120Ge": 2513,
    "\u0120resentment": 30232,
    "\u0120ve": 1590,
    "\u0120ultimately": 5354,
    "\u0120vigor": 21853,
    "fall": 10458,
    "levant": 15638,
    "\u0120pack": 3123,
    "Foot": 29659,
    "chn": 831,
    "\u0120Forces": 18285,
    "\u0120meltdown": 49140,
    "\u0120micrograms": 42789,
    "Physics": 46816,
    "\u0120fight": 3568,
    "\u0120lighthouse": 33059,
    "\u0120plummet": 38057,
    "\u0120Scandinav": 21347,
    "\u0120Golden": 13578,
    "Adult": 41985,
    "assan": 26491,
    "ologic": 10613,
    "\u0120confrontation": 28646,
    "~": 110,
    "ella": 7129,
    "\u0120geometrical": 39485,
    "\u0120operator": 12012,
    "Translation": 41928,
    "\u0120seminal": 25062,
    "RIPT": 27915,
    "\u0120Nashville": 34904,
    "\u0120\u0120\u010a": 32057,
    "inja": 34537,
    "\u0120aw": 1243,
    "\u0120chronically": 38857,
    "\u0120secrete": 37361,
    "\u00e8\u00bf\u013b": 48287,
    "\u0120Minutes": 43308,
    "\u0120failure": 4997,
    "Direct": 16118,
    "\u0120unintentional": 37027,
    "containing": 21971,
    "shaped": 10498,
    "\u0120Lisbon": 42944,
    "\u0120acids": 7077,
    "gue": 34652,
    "istocene": 35368,
    "\u0120Freem": 36812,
    "Next": 8693,
    "PA": 4442,
    "(\".": 41048,
    "comment": 3591,
    "iflower": 31867,
    "\u0120Accounting": 27646,
    "\u0120Leopold": 33568,
    "\u0120clar": 9276,
    "\u0120hopes": 11073,
    "\u0120dou": 3208,
    "\u0120lays": 22702,
    "scal": 23622,
    "ANN": 32131,
    "rr": 32182,
    "\u0120Gos": 46265,
    "\u0120Inquiry": 33094,
    "\u0120lenses": 13690,
    "PD": 9556,
    "\u010a\u010a\u0109\u0109": 35163,
    "\u0120yog": 14898,
    "\u0120prohibit": 25256,
    "Pa": 28694,
    "sigmoid": 40251,
    "cos": 12374,
    "\u0120Indians": 8628,
    "\u0120asked": 3413,
    "\u0120characteristics": 4616,
    "\u0120plaques": 30127,
    "ks": 538,
    "\u0120Calif": 30399,
    "\u0120sciences": 9491,
    "\u0120weird": 19774,
    "runc": 37986,
    "izophren": 15293,
    "\u0120Argentine": 34122,
    "\u0120Hym": 38980,
    "\u0120feet": 3282,
    "\u0120protests": 15542,
    "\u0120Peters": 16120,
    "\u0120Solomon": 16879,
    "\u0120private": 3646,
    "\u0120silent": 13879,
    "\u0120smiles": 30950,
    "\u0120easily": 3152,
    "alph": 21421,
    "Quality": 33800,
    "\u0120Cruz": 28365,
    "usive": 14113,
    "\u0120Fus": 42303,
    "ocr": 3882,
    "thereum": 31505,
    "\u0120ART": 28145,
    "\u0120efforts": 3016,
    "\u0120aorta": 39633,
    "Semitism": 38414,
    "iating": 13625,
    "\u0120Canterbury": 32200,
    "\u0120estrogen": 18224,
    "\u0120eugenics": 46926,
    "\u0120'_": 18336,
    "\u0120discipline": 9072,
    "\u0120performed": 4940,
    "blowing": 40069,
    "\u0120band": 5975,
    "\u0120Genet": 41028,
    "cluded": 11010,
    "\u0120Muslims": 10042,
    "\u00e2\u0122\u00a2\u00e2\u0122\u00a2": 44117,
    "\u0120Reproductive": 36239,
    "\u0120Theater": 28731,
    "\u0120Thy": 38742,
    "aughter": 5256,
    "\u0120Italians": 33342,
    "\u0120Mosquit": 34749,
    "writer": 15845,
    "asonry": 24307,
    "protocol": 26379,
    "\u0120Nev": 17305,
    "\u0120Sunshine": 49027,
    ".\"\"\"": 7996,
    "\u00e2\u0122\u00a6)": 41268,
    "\u00e8\u00a1\u00a8": 35739,
    "\u0120Very": 15753,
    "\u0120gau": 11912,
    "\u00e2\u0122\u013b:": 40820,
    "\u0120Sadly": 27886,
    "\u0120cheaper": 13446,
    "aled": 3991,
    "apore": 13248,
    "understanding": 40332,
    "\u0120Celebrating": 47088,
    "\u0120Preschool": 32583,
    "\u0120capt": 2670,
    "-.": 43526,
    "\u0120commodities": 20514,
    "\u0120deliber": 16093,
    "\u0120fort": 5601,
    "Med": 7266,
    "\u0120guerr": 31442,
    "lash": 29457,
    "\u0120gland": 12952,
    "Energy": 21657,
    "ami": 8119,
    "./": 18380,
    "Similar": 24355,
    "\u0120Covenant": 29627,
    "iflor": 46804,
    "\u0120LED": 11528,
    "\u0120Location": 24722,
    "\u0120official": 5326,
    "\u0120only": 805,
    "\u0120py": 4080,
    "\u0120slave": 9253,
    "\u0120soluble": 21027,
    "\u0120toss": 19838,
    "\u0120totals": 37651,
    "\u0120virtues": 19767,
    "\u0120opioids": 27310,
    "\u0120collage": 36617,
    "\u0120imbued": 44784,
    "rp": 42200,
    "genic": 28675,
    "\u0120slabs": 39261,
    "\u00c3\u0141": 34878,
    "\u0120Mood": 30803,
    "sock": 48218,
    "\u0120decisively": 48412,
    "Up": 3038,
    "\u0120suspect": 10221,
    "Jeff": 35924,
    "static": 10150,
    "Negative": 42529,
    "eville": 39991,
    "\u0120Asperger": 42946,
    "ALLY": 46567,
    "\u0120Hitch": 48966,
    "paramet": 27018,
    "ourt": 23338,
    "]\"": 38045,
    "it\u00c3\u00a9": 33816,
    "\u0120Addressing": 19269,
    "\u0120consistently": 9439,
    "oples": 7008,
    "\u0120oxen": 47168,
    "BV": 23347,
    "why": 23689,
    "\u0120EF": 32552,
    "\u0120exhilarating": 39934,
    "ni": 13450,
    "ococ": 25764,
    "\u0120intersection": 10930,
    "\u0120nations": 5355,
    "\u0120tensions": 12717,
    "acks": 2472,
    "\u0120unbroken": 48629,
    "ript": 2235,
    "linked": 23001,
    "\u0120bravely": 44580,
    "\u0120Responses": 39932,
    "\u0120crossing": 13107,
    "\u0120filled": 4412,
    "\u0120rust": 15744,
    "\u0120interruption": 34992,
    "idim": 31874,
    "\u0120ADA": 30515,
    "\u0120bumps": 27887,
    "\u00d0\u00b7": 23035,
    "\u0120commodity": 18213,
    "\u0120Fiji": 39713,
    "\u0120footh": 31221,
    "\u0120neuronal": 27138,
    "\u0120smallpox": 28865,
    "WT": 38659,
    "\u0120Asper": 31764,
    "\u0120young": 1805,
    "ulin": 6625,
    "\u0120conservationists": 36544,
    "\u0120reductions": 16149,
    "\u0120someone": 2206,
    "\u00d1\u0122\u00d0\u00b0": 23728,
    "rev": 18039,
    "\u0120Meas": 47555,
    "\u0120Sara": 31234,
    "\u0120hardest": 24953,
    "\u0120Rams": 33345,
    "shut": 41796,
    "\u0120Ordinary": 47842,
    "\u0120equine": 36526,
    "\u0120commits": 36767,
    "\u0120Salvation": 49001,
    "\u0120closes": 29508,
    "Upper": 41744,
    "\u0120solitude": 40694,
    "\u0120sunflower": 28991,
    ",\\": 29323,
    "umbers": 30465,
    "\u0120theft": 18109,
    "PeerV": 41255,
    "']))": 24700,
    "\u0120Nelson": 17322,
    "\u0120diagrams": 17241,
    "\u0120trich": 37958,
    "\u0120Bav": 31177,
    "CM": 10625,
    "\u0120protective": 8399,
    "\u0120trag": 14844,
    "\u0120hymns": 31218,
    "pson": 10739,
    "\u0120embarrassed": 32678,
    "ack": 580,
    "\u0120Dollar": 41847,
    "\u0120spores": 21698,
    "\u0120Tubman": 49056,
    "\u0120mi": 11488,
    "\u0120Waterloo": 37875,
    "\u0120Babies": 33077,
    "\u0120humankind": 27812,
    "ugh": 7641,
    "\u0120town": 3102,
    "\u0120Holland": 21980,
    "\u0120deafness": 44327,
    "\u0120airway": 22306,
    "lich": 31984,
    "\u0120scripture": 24422,
    "o": 95,
    "\u010a\u0120\u0120\u0120\u0120\u0120\u0120\u0120\u0120\u0120\u0120\u0120\u0120\u0120\u0120": 13596,
    "\u0120converts": 18065,
    "timestamp": 17492,
    "\u0120Canary": 47913,
    "\u0120estimates": 7614,
    "\u0120invasions": 30438,
    "enguin": 20227,
    "ruary": 4707,
    "\u0120camel": 32782,
    "\u0120evangel": 23452,
    "ea": 22125,
    "\u0120boots": 24322,
    "\u0120liturgy": 39299,
    "\u0120translations": 18189,
    "pseud": 47438,
    "\u0120Manage": 32599,
    "\u0120salv": 27204,
    "tens": 24295,
    "EPS": 42733,
    "\u00c9": 148,
    "alive": 42355,
    "\u0120AR": 8705,
    "\u0120looming": 40413,
    "\u0120Russian": 6103,
    "\u0120folders": 28291,
    "rin": 8873,
    "Post": 10360,
    "linspace": 26916,
    "merge": 20453,
    "DH": 38300,
    "philis": 30362,
    "Slow": 41142,
    "\u0120Orbiter": 47580,
    "hc": 46766,
    "\u0120Pre": 3000,
    "\u0120readily": 10350,
    "\u0120scrat": 29606,
    "\u0120Lithuania": 31872,
    "\u0120packet": 15976,
    "\u0120removable": 39093,
    "\u0120seismic": 20121,
    "\u0120weddings": 38453,
    "\u0120Burning": 39470,
    "Identifier": 38367,
    "\u0120workpiece": 46577,
    "\u00e5\u00af": 29335,
    "\u0120RH": 35595,
    "ln": 34115,
    "\u0120bearings": 29690,
    "\u0120Voyager": 36649,
    "\u0120kidneys": 14323,
    "\u0120precautions": 16150,
    "\u0120Amazon": 9860,
    "\u0120nullable": 24547,
    "\u0120ground": 2118,
    "ages": 969,
    "\u0120Comet": 38650,
    "ivalent": 6787,
    "\u0120counterproductive": 48688,
    "\u0120enlarge": 21389,
    "\u0120investment": 5642,
    "Command": 17777,
    "!": 17,
    "mult": 10593,
    "ologue": 45842,
    "oride": 35884,
    "\u0120artefacts": 34944,
    "\u0120ki": 42535,
    "\u0120nanotechnology": 27955,
    "\u0120proxy": 19617,
    "\u0120represented": 6610,
    "\u0120syntactic": 47747,
    "\u0120relocation": 33004,
    "\u0120trailing": 35079,
    "\u0120connections": 3962,
    "\u0120renewable": 8134,
    "\u0120overnight": 15115,
    "\u010a\u0120\u0120\u0120\u0120\u0120\u0120\u0120\u0120\u0120\u0120\u0120\u0120\u0120\u0120\u0120\u0120": 945,
    "\u0120Pup": 34555,
    "ships": 27322,
    "istics": 2659,
    "\u00e5\u012c\u0142": 48046,
    "\u0120>=": 10888,
    "\u0120Involved": 45808,
    "\u0120Supplies": 47501,
    "\u0120stru": 3051,
    "\u0120unfairly": 34803,
    "\u0120programs": 2774,
    "breeding": 28886,
    "adaptive": 32960,
    "\u0120Organize": 35281,
    "othic": 16939,
    "\u0120Stern": 33973,
    "\u0120Birthday": 45599,
    "\u0120fle": 6394,
    "\u0120regener": 24614,
    "iferous": 26594,
    "sim": 8045,
    "\u0120pleas": 30889,
    "\u0120Those": 6762,
    "\u0120bolts": 34080,
    "hood": 2694,
    "kyo": 17405,
    "romagnetic": 34935,
    "\u0120idolatry": 45885,
    "\u0120Soup": 45015,
    "resa": 27102,
    "\u0120advocates": 13074,
    "\u0120corpor": 5808,
    "\u0120coupling": 26494,
    "\u0120Huron": 47366,
    "global": 13906,
    "\u0120brain": 2106,
    "ela": 10945,
    "\u0120sacrific": 12533,
    "COMM": 29267,
    "'\",": 44140,
    "\u0120fauna": 19933,
    "\u0120performs": 16790,
    "\u0120centers": 7292,
    "\u0120assertive": 39068,
    "\u0120Prayer": 26783,
    "ospels": 26187,
    "invasive": 23489,
    "\u0120Elim": 27630,
    "\u0120convert": 7728,
    "\u0120Antibiotics": 42876,
    "\u0120coordinator": 25726,
    "\u0120summoned": 37467,
    "\u0120atrocities": 29717,
    "\u0120Country": 13767,
    "\u0120expert": 4507,
    "\u0120camera": 6715,
    "\u0120meats": 16160,
    "iss": 774,
    "\u0120notices": 32995,
    "\u0120tight": 9030,
    "ku": 27409,
    "register": 13744,
    "\u0120Cors": 49062,
    "\u0120ELL": 44192,
    "\u0120Ludwig": 31260,
    "\u0120XII": 37728,
    "\u0120displacement": 15267,
    "proc": 25469,
    "\u0120documentaries": 32262,
    "ven": 1241,
    "\u0120Ahmed": 31607,
    "\u0120Lit": 22526,
    "\u0120at": 418,
    "\u0120illegit": 38737,
    "\u0120Crane": 42872,
    "\u0120modern": 2148,
    "\u0120Beach": 15491,
    "\u0120off": 767,
    "radd": 39979,
    "\u0120Saving": 30212,
    "\u0120government": 1693,
    "\u0120preach": 34167,
    "\u0120reap": 27144,
    "\u0120consequ": 3611,
    "ADA": 35758,
    "\u0120health": 864,
    "\u0120Coconut": 43134,
    "\u0120spouse": 22615,
    "\u0120Atlanta": 19813,
    "ulumi": 9897,
    "Pr": 9706,
    "\u0120paren": 33877,
    "\u0120savings": 9797,
    "hence": 41196,
    "ecs": 37420,
    "agy": 41749,
    "\u0120AN": 4934,
    "submission": 45347,
    "\u0120carcinogen": 46288,
    "\u0120tasks": 4381,
    "\u0120crocodiles": 41204,
    "\u00c3\u00a9e": 20174,
    "\u0120SC": 15341,
    "sema": 47311,
    "ifest": 22334,
    "eng": 1059,
    "\u0120concur": 37222,
    "\u0120doctorate": 32801,
    "\u0120reprint": 39785,
    "\u0120putative": 43587,
    "stuff": 35407,
    "Cyber": 38547,
    "\u0120recommending": 31200,
    "\u0120Ground": 15675,
    "\u0120squad": 22884,
    "\u0120stinging": 44732,
    "\u0120astonishing": 24443,
    "\u0120swallowing": 23216,
    "ogn": 1514,
    "\u0120bordering": 39690,
    "\u0120rehears": 29084,
    "akistan": 8401,
    "\u0120stunned": 45358,
    "\u0120val": 886,
    "beth": 21899,
    "\u0120males": 8225,
    "\u0120HTML": 13640,
    "Ans": 38755,
    "DEX": 31958,
    "ocrine": 18184,
    "sac": 31865,
    "\u0120delaying": 36421,
    "Directory": 34275,
    "\u0120plantings": 36841,
    "Mary": 25653,
    "\u0120Titan": 18804,
    "\u0120bishops": 25294,
    "\u0120yielding": 26301,
    "\u0120ail": 19428,
    "\u0120Cav": 28237,
    "\u0120enhanced": 8843,
    "ategorical": 32560,
    "\u0120Byzantine": 19010,
    "berra": 38024,
    "OUTPUT": 44724,
    "\u0120Chir": 47016,
    "\u0120disinfectant": 42702,
    "\u0120bark": 13113,
    "emption": 15643,
    "overlay": 49071,
    "cloth": 33812,
    "req": 12163,
    "\u0120Does": 7369,
    "\u0120protr": 29433,
    "\u0120Friedrich": 26032,
    "\u0120advising": 33751,
    "\u0120render": 8215,
    "\u0120Adaptive": 36780,
    "\u0120stakes": 27486,
    "\u0120Components": 26812,
    "ras": 5541,
    "\u0120Sandra": 43695,
    "rame": 4676,
    "\u0120competitiveness": 29493,
    "Wik": 28701,
    "\u0120privilege": 16071,
    "\u0120please": 5361,
    ":*": 15709,
    "\u0120synt": 4922,
    "\u0120international": 3113,
    "Dele": 23610,
    "\u0120nitrogen": 9004,
    "\u0120divid": 4526,
    "\u0120inanimate": 47600,
    "\u0120playgrounds": 47861,
    "\u0120unite": 24598,
    "\u0120Superintendent": 43474,
    "\u0120upheaval": 33495,
    "Must": 40430,
    "\u0120confirms": 23351,
    "uli": 24539,
    "\u00c3\u012b": 39614,
    "\u0120Streng": 18828,
    "\u0120Test": 4246,
    "\u0120Switch": 32167,
    "\u0120palp": 27289,
    "\u0120sax": 38085,
    "\u0120sunny": 12926,
    "\u0120tires": 20381,
    "\u0120trash": 15582,
    "\u0120cough": 10449,
    "\u0120ego": 21693,
    "\u0120learns": 17542,
    "\u0120Airport": 23586,
    "Pref": 29039,
    "\u0120antennas": 30664,
    "rums": 36811,
    "houses": 15359,
    "\u0120livelihood": 15589,
    "thel": 36310,
    "alth": 728,
    "\u0120explan": 5752,
    "Common": 13883,
    "zen": 6645,
    "plog": 40884,
    "\u0120boasted": 41597,
    "\u0120herbivores": 37752,
    "\u0120Courts": 28386,
    "\u0120beginners": 20002,
    "\u0120delves": 12981,
    "\u0120incorpor": 3392,
    "Chronic": 32530,
    "\u0120respondents": 16108,
    "\u0120rulers": 15824,
    "\u0120bike": 12094,
    "\u0120codes": 9606,
    "\u0120tenses": 46722,
    "\u0120titles": 11762,
    "\u0120unstructured": 40510,
    "TL": 27510,
    "llium": 44113,
    "Qt": 16563,
    "\u0120Hazard": 30629,
    "otten": 11529,
    "Dir": 22790,
    "Donnell": 46762,
    "oan": 10804,
    "\u00c3\u00a6": 16467,
    "\u0120Mahar": 27739,
    "\u0120Niagara": 35474,
    "\u0120centrifug": 30401,
    "\u0120charg": 5234,
    "\u0120coll": 4064,
    "\u0120court": 4772,
    "Long": 15088,
    "\u0120Battery": 28064,
    "\u0120lighter": 13603,
    "\u0120negligible": 31566,
    "\u0120promotions": 35681,
    "\u0120Zeus": 25795,
    "\u0120rhyme": 24654,
    "Whilst": 42443,
    "\u0120listened": 17443,
    "toplankton": 33797,
    "\u0120sizes": 7804,
    "plets": 19342,
    "\u0120confirming": 28750,
    "\u0120LE": 19436,
    "\u0120fl": 832,
    "?": 47,
    "\u0120Mord": 37881,
    "\u0120elapsed": 35041,
    "\u0120millennium": 26175,
    "\u0120safer": 10145,
    "\u0120sexually": 16531,
    "Glob": 47715,
    "phans": 37649,
    "/.": 17396,
    "\u0120Elli": 35738,
    "\u0120cmds": 45656,
    "\u0120inadvertently": 34759,
    "\u0120Spain": 7476,
    "\u0120ashes": 29537,
    "yp": 5762,
    "urry": 28695,
    "\u0120fib": 3987,
    "\u0120locals": 15191,
    "\u0120rations": 42779,
    "\u0120Finally": 6887,
    "origin": 25129,
    "\u0120Danish": 18269,
    "\u0120IR": 17995,
    "\u0120tales": 9029,
    "\"\"\"": 3327,
    "gc": 41593,
    "Reducing": 41457,
    "landers": 31765,
    "roring": 39253,
    "Light": 21553,
    "done": 22744,
    "\u0120Green": 4910,
    "\u0120MID": 35670,
    "\u0120Suddenly": 20630,
    "inance": 11079,
    "\u0120bushel": 40353,
    "\u0120Demographic": 48447,
    "\u0120Caled": 46519,
    "\u0120conve": 15726,
    "\u0120disc": 937,
    "\u0120ethylene": 43559,
    "\u00e5\u0122": 33945,
    "\u0120glow": 14654,
    "\u0120Weaver": 47335,
    "\u0120interfering": 30836,
    "\u0120significantly": 3571,
    "Germ": 27013,
    "\u0120adversity": 14490,
    "\u0120checkpoint": 27759,
    "\u0120oneself": 13971,
    "\u0120Artem": 36457,
    "\u0120sourcing": 29947,
    "Er": 24046,
    "SS": 6690,
    "\u0120Princip": 45120,
    "\u0120sonic": 41005,
    "vantage": 43988,
    "\u0120asserted": 26405,
    "\u0120crunchy": 47979,
    "\u0120contractual": 41070,
    "\u0120swift": 16802,
    "\u0120Functional": 27165,
    "ointment": 41662,
    "\u0120ensuing": 31701,
    "\u0120Cause": 24828,
    "upiter": 13939,
    "roup": 3245,
    "ura": 8763,
    "\u0120Cushing": 46183,
    "\u0120Extract": 28873,
    "xc": 14630,
    "\u0120Astronomical": 36401,
    "\u00d0\u00b5\u00d0\u00bd": 22140,
    "\u0120Kaz": 19987,
    "\u0120committee": 8572,
    "\u0120interplay": 17861,
    "\u0120rods": 23109,
    "\u0120steeped": 38128,
    "\u0120sustaining": 24276,
    "\u0120Uk": 10430,
    "ptime": 43407,
    "\u0120franchise": 28315,
    "$,": 26265,
    "iability": 9012,
    "ibility": 1968,
    "\u0120Hay": 13030,
    "\u0120explorer": 23732,
    "ascal": 34315,
    "\u0120iod": 17412,
    "\u0120histor": 2012,
    "charg": 11821,
    "liance": 19130,
    "paced": 22141,
    "\u0120Curve": 36092,
    "\u0120installment": 45273,
    "\u0120tribes": 8917,
    "\u0120thru": 48741,
    "icul": 10192,
    "\u0120origin": 5062,
    "icture": 24387,
    "ienced": 29063,
    "\u0120tenth": 23249,
    "\u0120cabinets": 36563,
    "apiro": 43764,
    "Connor": 38261,
    "CHECK": 45487,
    "\u0120occurred": 5691,
    "ourg": 33346,
    "\u0120deepens": 42695,
    "\u0120recommend": 3730,
    "\u0120teaspoons": 39048,
    "\u0120cant": 19362,
    "\u0120pie": 2357,
    "ankton": 22792,
    "\u0120discard": 31032,
    "\u0120Malaria": 37572,
    "sed": 43952,
    "\u0120Bos": 16711,
    "\u0120cartilage": 19845,
    "\u0120slots": 29542,
    "\u0120Jackson": 10618,
    "ousse": 30880,
    "\u0120Pest": 29007,
    "Comm": 9482,
    "\u0120Schedule": 23087,
    "styles": 39790,
    "rer": 16863,
    "\u0120Iber": 31028,
    "\u0120shareholders": 26887,
    "Element": 13975,
    "Left": 26839,
    "\u0120Wein": 44235,
    "\u0120Arn": 20271,
    "\u0120Config": 17399,
    "pora": 21525,
    "\u0120Ir": 6084,
    "\u0120Publisher": 35124,
    "\u0120cigar": 48978,
    "icense": 4701,
    "ovsk": 41016,
    "\u0120horsepower": 43866,
    "\u0120conf": 1086,
    "\u0120larg": 1871,
    "\u0120lodged": 45370,
    "Advanced": 34892,
    "\u0120propel": 32832,
    "\u0120Cons": 2913,
    "\u0120Awareness": 18546,
    "\u0120Statement": 22116,
    "\u0120Ank": 36709,
    "\u0120mindful": 14694,
    "\u0120reve": 2998,
    "invol": 37369,
    "\u0120pornography": 34202,
    "\u0120soci": 1622,
    "\u0120tumours": 31767,
    "\u0120architect": 3866,
    "\u0120engraving": 37367,
    "\u0120efficiency": 4890,
    "\u0120Mix": 18212,
    "\u0120leases": 45861,
    "\u0120Mid": 10418,
    "ferences": 43600,
    "entially": 12339,
    "\u0120Fourteenth": 47299,
    "\u0120What": 1812,
    "\u0120interpol": 22041,
    "\u0120liturgical": 33914,
    "\u0120retreating": 44247,
    "\u0120tra": 635,
    "\u0120unclear": 14121,
    "\u0120ref": 930,
    "rote": 3802,
    "filenames": 44423,
    "inform": 46512,
    "\u0120Shab": 32253,
    "Current": 12183,
    "\u0120arcs": 36260,
    "\u0120arsenic": 22146,
    "\u0120unborn": 36390,
    "itudinal": 17436,
    "Addressing": 39829,
    "mindedness": 39556,
    "\u0120arrive": 11296,
    "eners": 20131,
    "\u0120immigrated": 46392,
    "surgical": 39647,
    "\u0120Uranus": 36985,
    "Cl": 3603,
    "ANY": 46409,
    "rece": 29356,
    "\u0120Arab": 5514,
    "\u0120Given": 10887,
    "\u0120Init": 7848,
    "\u0120deformed": 40819,
    "\u0120sporadic": 36877,
    "\u0120surf": 17057,
    "\u0120undertaking": 22833,
    "\u0120leasing": 46910,
    "\u0120located": 3807,
    "Climate": 20799,
    "Int": 4038,
    "etc": 23980,
    "\u0120Balance": 22284,
    "\u0120historiography": 47275,
    "\u0120irresist": 41107,
    "\u0120carries": 11046,
    "\u0120sql": 16388,
    "\u0120Himalayas": 34509,
    "loop": 15528,
    "itics": 13923,
    "\u0120contradiction": 27799,
    "\u0120prim": 1996,
    "adata": 6895,
    "\u0120Lee": 9308,
    "\u0120choking": 35363,
    "rates": 5853,
    "\u0120Counting": 45025,
    "\u0120essays": 8434,
    "\u0120overturned": 44892,
    "\u0120monsoon": 30351,
    "\u0120remedial": 42414,
    "ighted": 23332,
    "\u0120appropriation": 30460,
    "\u0120Jew": 2854,
    "\u0120unnecessary": 11125,
    "\u0120torque": 23264,
    "\u0120traumas": 41201,
    "\u0120fabricated": 33008,
    "ionage": 33710,
    "udes": 25988,
    "\u0120disagree": 10069,
    "\u010a\u0120\u0120\u0120\u0120\u0120\u0120\u0120\u0120\u0120\u0120\u0120\u0120\u0120\u0120\u0120\u0120\u0120\u0120\u0120\u0120": 11539,
    "\u0120emphasis": 8154,
    "\u0120redes": 28137,
    "Teach": 41586,
    "\u0120Embracing": 17459,
    "\u0120speak": 3287,
    "\u0120Lorenzo": 44278,
    "<jupyter_start>": 11,
    "Home": 16088,
    "\u0120cherries": 34526,
    "\u0120Bat": 16089,
    "\u0120decreed": 48727,
    "\u0120inquire": 37933,
    "Figures": 49030,
    "\u0120Tak": 26763,
    "\u0120Late": 18138,
    "\u0120intestines": 22963,
    "\u00c5\u0135": 34493,
    "\u0120advent": 4588,
    "\u0120cas": 8828,
    "\u0120serpent": 27476,
    "\u0120one": 582,
    "\"):": 12593,
    "\u0120Christina": 45989,
    "ishing": 4753,
    "odon": 31513,
    "\u0120almonds": 29127,
    "\u0120mommy": 43953,
    "\u0120Commission": 6297,
    "erick": 48334,
    "ourism": 28020,
    "\u00d0\u00bb\u00d0\u00b0": 46013,
    "\u0120Os": 13956,
    "does": 26802,
    "Resp": 10598,
    "rush": 31663,
    "\u0120Args": 13707,
    "\u0120blogger": 44507,
    "\u0120lesion": 29154,
    "hement": 49124,
    "\u0120neurolog": 10924,
    "\u0120skin": 2574,
    "INGTON": 45679,
    "\u0120Ellis": 29455,
    "\u0120chromosomes": 18301,
    "\u0120disordered": 40932,
    "mist": 29841,
    "\u0120absurd": 19797,
    "\u0120Leak": 27885,
    "mod": 2172,
    "\u0120Bre": 6595,
    "\u0120Pitt": 38531,
    "\u0120edifice": 49020,
    "\u0120Approved": 46707,
    "\u0120foraging": 24804,
    "\u0120Rapp": 38387,
    "\u0120assist": 4237,
    "\u0120ventricles": 48411,
    "\u0120Philippines": 13933,
    "\u0120fry": 30962,
    "\u0120antigen": 21898,
    "\u0120edition": 8638,
    "CDC": 21263,
    "\u0120pylori": 44621,
    "\u0120superst": 26023,
    "colored": 20296,
    "\u0120Sib": 23161,
    "\u0120unic": 31721,
    "\u0120Chapters": 40302,
    "\u0120Mirror": 41480,
    "\u0120Plantation": 46023,
    "\u0120Running": 26515,
    "parse": 7178,
    "thermal": 30667,
    "\u0120Tart": 41433,
    "\u0120characterize": 21968,
    "\u0120coefficient": 18106,
    "\u0120perhaps": 4012,
    "\u0120Greg": 13902,
    "\u0120independent": 4791,
    "\u0120measure": 2621,
    "\u0120Ges": 41925,
    "Of": 6228,
    "\u0120containing": 5085,
    "install": 21928,
    "\u0120Studies": 6124,
    "\u0120farmers": 5283,
    "\u0120hop": 4432,
    "\u0120highlighted": 11788,
    "flu": 15860,
    "\u0120Authorities": 42938,
    "\u0120Gain": 30479,
    "unal": 23827,
    "\u0120al": 360,
    "\u0120deprecated": 48771,
    "\u00ce\u00af": 22442,
    "\u0120IRS": 38978,
    "\u0120thorn": 37133,
    "\u0120arising": 15187,
    "\u0120Officials": 43009,
    "\u0120aren": 4775,
    "\u0120testify": 36097,
    "\u0120urea": 36275,
    "\u0120spont": 14311,
    "\u0120Rehab": 25656,
    "ce": 319,
    "PTSD": 37278,
    "rob": 18052,
    "\u0120Comics": 28266,
    "\u0120heights": 17388,
    "lection": 1976,
    "\u0120terminals": 27110,
    "\u0120pierced": 46650,
    "\u0120capability": 12678,
    "hurst": 39225,
    "\u0120fonts": 19053,
    "\u0120Eu": 19936,
    "\u0120lever": 13526,
    "\u0120marvels": 34435,
    "Spanish": 29536,
    "\u0120exchanged": 20975,
    "\u0120Borne": 35409,
    "\u0120asymmetrical": 48285,
    ")](": 25840,
    "\u0120Scal": 37223,
    "opharmac": 49110,
    "\u0120partition": 15091,
    "utral": 22728,
    "ava": 6056,
    "ovable": 38913,
    "\u0120emphasize": 11111,
    "cnn": 41010,
    "\u0120defer": 43170,
    "\u0120surviv": 10577,
    "insular": 48539,
    "\u0120minister": 11814,
    "aggressions": 41987,
    "\u0120plugin": 26518,
    "Arm": 38257,
    "\u0120radon": 28848,
    "bg": 25546,
    "\u00d7\u00aa": 36416,
    "Civil": 29075,
    "\u0120recre": 9976,
    "\u0120databases": 12303,
    "\u0120sacrament": 45331,
    "\u0120Hassan": 39952,
    "heres": 12950,
    "\u0120Minimal": 48749,
    "\u0120Associate": 21337,
    "\u0120motivating": 30899,
    "gre": 24192,
    "\u0120Analyze": 25297,
    "\u0120Replacement": 44831,
    "\u0120sample": 4315,
    "ros": 4066,
    "\u0120drawn": 7141,
    "\u0120intricacies": 16376,
    "\u0120CNC": 29297,
    "\u0120measured": 6090,
    "\u0120referendum": 29583,
    "prot": 10554,
    "\u0120Ket": 32927,
    "\u0120decomposition": 22269,
    "meal": 21859,
    "\u0120nationally": 21746,
    "\u0120realize": 7319,
    "\u0120subscription": 22047,
    "\u0120Cardi": 28037,
    "\u0120barcode": 43165,
    "\u0120replaces": 28593,
    "\u0120amalg": 29597,
    "\u0120Voting": 37585,
    "\u0120mummy": 46314,
    "\u0120Lux": 26354,
    "')))": 41276,
    "blers": 35887,
    "\u0120Vol": 5153,
    "bought": 48112,
    "\u0120unprecedented": 12949,
    "Royal": 38708,
    "izabeth": 9013,
    "\u0120Platforms": 40879,
    "Former": 44550,
    "\u0120Theological": 45282,
    "olic": 2454,
    "\u0120believers": 17325,
    "\u0120Geometry": 30978,
    "\u0120Proclamation": 36290,
    "\u0120simulation": 10943,
    "CAM": 39776,
    "\u0120opin": 4362,
    "waters": 25611,
    "\u0120scrib": 43639,
    "astro": 41263,
    "icating": 19999,
    "\u0120parental": 15843,
    "\u0120empathetic": 29013,
    "\u010a\u0120\u0120\u0120\u0120\u0120\u0120\u0120\u0120\u0120\u0120\u0120\u0120\u0120\u0120\u0120\u0120\u0120\u0120\u0120\u0120\u0120\u0120\u0120\u0120": 2953,
    "Joseph": 29504,
    "ires": 1946,
    "\u0120DataFrame": 26270,
    "\u0120Subject": 18722,
    "stations": 35843,
    "\u0120dollar": 12796,
    "joice": 41632,
    "ouses": 10483,
    "\u0120Bug": 31908,
    "Oil": 39367,
    "\u0120Obtain": 44404,
    "\u0120fin": 1501,
    "###": 3757,
    "\u0120Bac": 42357,
    "\u0120fortune": 18598,
    "\u0120mature": 9945,
    "\u0120Creator": 23000,
    "\u00c2\u00b4": 23587,
    "\u0120sulph": 21340,
    "clud": 710,
    "\u0120Laser": 27794,
    "\u0120familiarity": 22780,
    "]):": 16334,
    "\u0120toy": 10976,
    "\u0120Yeast": 48923,
    "\u0120Nom": 35862,
    "\u0120Tags": 47669,
    "\u0120\u00e2\u0139": 32785,
    "ische": 27988,
    "\"].": 16777,
    "snake": 48284,
    "\u0120fals": 23979,
    "\u0120attorneys": 26632,
    "\u0120IPM": 45506,
    "\u0120chlor": 8717,
    "\u0120dip": 17622,
    "osaurus": 29361,
    "ulary": 7324,
    "OH": 18692,
    "\u0120bachelor": 20064,
    "\u0120Ramadan": 29835,
    "\u0120eradication": 30792,
    "\u0120Meal": 46794,
    "\u0120expense": 12372,
    "Weather": 39939,
    "\u0120insane": 38695,
    "\u0120poorest": 23923,
    "\u0120scans": 16266,
    "sample": 10029,
    "\u0120execution": 10295,
    "reporting": 46938,
    "fowl": 35263,
    "los": 28584,
    "Call": 12800,
    "Jan": 14247,
    "\u0120conserving": 25862,
    "\u0120harb": 31268,
    "ruff": 37042,
    "\u0120trunc": 29130,
    "Stephen": 43148,
    "ORK": 25089,
    "asset": 27556,
    "Made": 42532,
    "softmax": 34024,
    "\u00d0\u00b5\u00d0\u00bc": 44758,
    "\u0120Bott": 37180,
    "\u0120Way": 9129,
    "\u0120devastating": 12555,
    "\u0120mattered": 36682,
    "\u0120Rise": 25500,
    "Linux": 37656,
    "alo": 13783,
    "\u0120numerically": 47231,
    "?),": 41630,
    "\u0120summary": 7127,
    "oodle": 25325,
    "\u0120Hollow": 42884,
    "myth": 44010,
    "\u0120calend": 32086,
    "\u0120tro": 5855,
    "strand": 33234,
    "\u0120cylind": 18585,
    "\u0120Liability": 48551,
    "oes": 2586,
    "\u0120verbose": 12699,
    "versive": 43141,
    "\u0120pest": 11678,
    "ndim": 39487,
    "eele": 48146,
    "ado": 5572,
    "oS": 19456,
    "\u00d0\u00bd\u00d0\u00be": 45459,
    "DB": 13684,
    "\u0120IT": 9627,
    "\u0120Oral": 18609,
    "\u0120fall": 2332,
    "Healthy": 30819,
    "charted": 42957,
    "omi": 25250,
    "\u0120all": 511,
    "\u0120Coloring": 42954,
    "\u0120equation": 8345,
    "\u0120Thom": 13173,
    "\u0120polluting": 31755,
    "\u0120Preserve": 34614,
    "\u0120record": 2004,
    "\u0120\u00c2\u00b7": 13559,
    "\u011b": 212,
    "nered": 19806,
    "ometer": 10798,
    "reset": 17901,
    "\u0120seiz": 11993,
    "\u0120comed": 44030,
    "\u0120J": 530,
    "\u0120alerted": 48691,
    "SOURCE": 34861,
    "\u0120artifact": 27112,
    "\u0120Greenwich": 41318,
    "\u0120Sab": 12984,
    "Cred": 37512,
    "ca": 6246,
    "\u0120\"": 476,
    "\u0120Inuit": 24917,
    "\u0120Navigation": 33422,
    "\u0120rend": 11630,
    "\u0120Weight": 16859,
    "\u0120whisk": 33024,
    "\u0120instruction": 5785,
    "\u0120literatures": 42935,
    "\u0120headline": 32045,
    "\u0120undermine": 21454,
    "\u0120drift": 19672,
    "\u0120Jackie": 47077,
    "\u0120germinate": 34860,
    "\u0120Albania": 40555,
    "\u0120sv": 34132,
    "\u0120allegiance": 30430,
    "\u0120Developing": 16007,
    "aland": 48935,
    "\u00e0\u00a4\u00be": 18075,
    "\u0120InstancePreprocess": 48047,
    "\u0120Persians": 35269,
    "\u0120buf": 27396,
    "\u0120feeders": 30669,
    "\u0120messages": 5894,
    "\u0120Hak": 43345,
    "Ox": 23267,
    "\u0120carbide": 49134,
    "\u0120ligand": 42650,
    "rad": 2270,
    "\u0120whence": 42783,
    "velop": 748,
    "ighter": 6827,
    "\u0120tum": 5169,
    "\u0120Bram": 44733,
    "\u0120Freeman": 33245,
    "\u0120Temperature": 22358,
    "Later": 24790,
    "alism": 25821,
    "\u0120Worldwide": 37539,
    "\u0120preferring": 41767,
    "\u0120repeatedly": 12840,
    "issues": 7084,
    "\u0120PLoS": 27585,
    "ipur": 41719,
    "\u0120experimentation": 17016,
    "\u0120ordering": 19170,
    "TYPE": 18104,
    "\u0120Morph": 38882,
    "\u0120amphib": 17764,
    "\u0120Families": 19466,
    "Early": 15127,
    "\u0120Bon": 11948,
    "\u0120broccoli": 21984,
    "\u0120roses": 26140,
    "\u0120signifies": 22471,
    "ctive": 7888,
    "\u0120flakes": 34149,
    "manage": 40899,
    "median": 33102,
    "\u0120Sing": 7575,
    "\u0120mouthwatering": 35759,
    "\u0120acute": 8937,
    "pyplot": 20682,
    "\u0120unseen": 30060,
    "\u0120coff": 6161,
    "net": 4205,
    "\u0120rampant": 29056,
    "oth": 789,
    "\u0120phag": 44980,
    "\u0120venerable": 47202,
    "\u0120replaced": 7233,
    "\u0120endorsement": 33267,
    "\u0120burs": 37533,
    "aterial": 1286,
    "\u0120lawful": 34780,
    "\u0120Norm": 8706,
    "\u0120hammer": 19953,
    "\u0120lethal": 21203,
    "\u0120Fifth": 25729,
    "\u0120obviously": 12032,
    "\u0120adventurous": 28058,
    "boro": 32468,
    "\u0120realized": 6638,
    "\u0120plausible": 22075,
    "\u013b\u0124": 38887,
    "parents": 15317,
    "\u0120Afric": 2079,
    ".:": 11171,
    "\u0120board": 4411,
    "\u0120Lub": 33588,
    "MainWindow": 42940,
    "\u0120emb": 2136,
    "\u0120internal": 4611,
    "finger": 36783,
    "ulated": 3853,
    "\u0120Trad": 37594,
    "logged": 44012,
    "\u0120deg": 2271,
    "\u0120expended": 48422,
    "\u0120February": 5096,
    "\u0120indist": 36569,
    "pp": 394,
    "\u0120interpreting": 16702,
    "\u0120mild": 7321,
    ")+": 18434,
    "poses": 4906,
    "\u0120Ide": 9349,
    "\u0120Social": 4758,
    "\u0120mount": 3570,
    "\u0120Expectations": 39946,
    "\u0120Integrating": 25493,
    "\u0120reciting": 46641,
    "\u0120consistent": 5707,
    "\u00ec\u013f\u00b4": 46258,
    "\u0120Designs": 46525,
    "ange": 776,
    "amorph": 21654,
    "\u0120atmosp": 4301,
    "cence": 16142,
    "\u0120rewarded": 26833,
    "\u0120Yun": 35805,
    "\u0120safest": 30169,
    "\u0120fp": 26709,
    "\u0120cryptocur": 17550,
    "\u0120Barack": 28950,
    "\u0120hort": 24509,
    "\u0120integrity": 8988,
    "\u0120Dial": 19008,
    "\u0120Poss": 35539,
    "\u0120three": 1296,
    "\u0120averages": 25547,
    "\u0120detoxification": 33136,
    "\u0120heavens": 23418,
    "olulu": 45002,
    "\u0120pert": 14520,
    "\u0120refugee": 17454,
    "\u0120toug": 26397,
    "\u0120Herodotus": 46652,
    "\u0120ev": 577,
    "married": 29814,
    "\u0120Pol": 3360,
    "amph": 23421,
    "\u0120canine": 24563,
    "\u0120disreg": 21680,
    "seated": 48030,
    "lassical": 48150,
    "\u0120conversational": 33820,
    "\u0120extrusion": 35260,
    "\u0120releasing": 15122,
    "transistors": 48319,
    "\u0120vagina": 27495,
    "\u0120vivid": 12999,
    "\u00e0\u00a4\u00b5": 38050,
    "\u0120kinetic": 24323,
    "\u0120dataset": 7747,
    "\u0120Jason": 27429,
    "algorithm": 43176,
    "umble": 17803,
    "\u0120Head": 9413,
    "\u0120window": 5700,
    "driven": 13729,
    "\u0120aerodynamic": 40098,
    "\u0120eastward": 38222,
    "\u0120immersion": 21539,
    "\u0120inequality": 9724,
    "rofen": 33483,
    "\u0120Often": 9449,
    "\u0120accompan": 8546,
    "\u0120legisl": 8243,
    "odder": 38395,
    "\u0120monastic": 29843,
    "\u0120sports": 5288,
    "\u0120volts": 28794,
    "oT": 13112,
    "x": 104,
    "\u0120Yum": 44574,
    "Near": 41092,
    "\u0120Ji": 35904,
    "\u0120hydrop": 21992,
    "\u0120zig": 46812,
    "_": 79,
    "August": 17411,
    "no": 4607,
    "generic": 35258,
    "\u0120decimal": 17948,
    "\u0120sort": 4440,
    "\u0120Approximately": 24230,
    "marg": 26982,
    "\u0120parsed": 26259,
    "\u0120neuron": 23577,
    "\u0120[\u00e2\u0122\u00a6]": 26459,
    "Trans": 8241,
    "\u0120Pret": 21890,
    "\u0120destro": 13911,
    "\u0120Flint": 33556,
    "oqu": 15692,
    "\u0120impoverished": 31010,
    "Prop": 27355,
    "\u0120Nevertheless": 10817,
    "\u0120elk": 30849,
    "\u0120\u00c2\u00ab": 23708,
    "\u0120worsens": 44851,
    "annon": 22522,
    "\u0120Boundaries": 39484,
    "\u00e7\u0136\u00a8": 23088,
    "top": 4961,
    "Family": 22842,
    "USA": 24842,
    "uuid": 15042,
    "\u0120Jiang": 40424,
    "\u0120Phys": 5260,
    "\u0120casing": 38325,
    "\u0120Tommy": 33060,
    "uben": 46515,
    "\u0120ethics": 9746,
    "box": 4810,
    "\u0120laptops": 24808,
    "eroy": 45229,
    "HA": 9136,
    "\u0120amput": 27753,
    "\u0120issues": 1974,
    "\u0120pitches": 36580,
    "\u0120selecting": 10019,
    "\u00a8": 118,
    "\u0120territory": 7305,
    "\u0120transl": 4710,
    "\u0120weaning": 42439,
    "ilis": 19169,
    "nail": 30182,
    "\u0120witnessed": 13904,
    "\u0120legally": 14114,
    "\u0120aneurysm": 45247,
    "\u0120ingested": 26276,
    "erning": 45038,
    "\u0120connection": 3890,
    "\u0120incap": 22070,
    "\u0120integral": 10021,
    "\u0120scarcely": 32858,
    "neal": 32407,
    "download": 18595,
    "Front": 44062,
    "pubmed": 41478,
    "AIDS": 18457,
    "ontology": 24788,
    "permissions": 32483,
    "\u00c3\u0125": 31173,
    "file": 2153,
    "\u0120CSR": 39364,
    "\u0120Courses": 34029,
    "\u0120Download": 17374,
    "\u0120Hond": 24242,
    "\u0120engaged": 6934,
    "\u0120fg": 43387,
    "\u0120glaze": 40534,
    "\u0120Making": 11628,
    "\u0120pediatrics": 47668,
    "compat": 18327,
    "\u0120attendant": 38908,
    "\u0120positives": 33546,
    "\u0120Oz": 28508,
    "\u0120imbal": 12132,
    "amy": 19150,
    "\u0120evaluating": 11168,
    "\u0120Deb": 18469,
    "\u0120sow": 29679,
    "\u0120enrolled": 17660,
    "\u0120Arnold": 25652,
    "\u0120presumably": 19872,
    "\u0120\u00e9": 30866,
    "\u0120Merced": 45334,
    "\u0120Baptist": 18675,
    "\u0120Cle": 8752,
    "\u0120IL": 18369,
    "\u0120adip": 33452,
    "\u0120greens": 16685,
    "\u0120grouped": 20155,
    "mis": 34210,
    "Navigating": 37852,
    "\u0120pointer": 26116,
    "berty": 22740,
    "\u0120Annals": 37383,
    "\u0120incarnation": 41955,
    "\u0120prevalent": 11781,
    "junct": 43233,
    "\u0120maximise": 43115,
    "\u0120utils": 17189,
    "\u0120chromium": 29988,
    "\u0120\u00d0\u00ba": 31338,
    "[": 75,
    "angan": 38752,
    "\u0120Refrig": 47650,
    "\u0120Weapons": 37882,
    "\u0120Vision": 17753,
    "\u0120antifungal": 46653,
    "orf": 22196,
    "\u0120boulders": 40738,
    "alpha": 13433,
    "\u0120DV": 41044,
    "\u0120constructed": 8020,
    "\u0120Against": 17795,
    "zema": 21431,
    "operative": 9864,
    "\u0120Promotion": 35387,
    "\u0120Um": 43376,
    "asties": 33165,
    "\u0120Biology": 10814,
    "\u0120atomic": 12000,
    "Rep": 9302,
    "\u0120budding": 26786,
    "\u0120pronouns": 27104,
    "\u0120rh": 10390,
    "\u0120scoot": 45433,
    "iol": 2286,
    "\u0120'[": 40263,
    "\u0120testimonies": 43083,
    "\u0120emitted": 17945,
    "ots": 1565,
    "\u0120aspirin": 24462,
    "pective": 11836,
    "\u0120offshore": 18992,
    "\u0120speciation": 44448,
    "\u0120symbolism": 18072,
    "\u0120calculates": 23427,
    "\u0120CI": 19752,
    "\u0120incompetent": 47346,
    "\u0120comic": 13571,
    "\u0120committed": 7245,
    "unched": 33890,
    "cone": 47545,
    "\u0120Prison": 25739,
    "olation": 27862,
    "ogon": 45625,
    "\u0120paradise": 30150,
    "\u0120reflux": 20838,
    "uction": 11068,
    "healing": 43200,
    "\u0120safeguarding": 19554,
    "\u0120triumphant": 46326,
    "Ste": 16949,
    "\u0120dealer": 35089,
    "\u0120Exerc": 26335,
    "\u0120Raleigh": 45381,
    "\u0120grasses": 18251,
    "\u0120potentials": 31424,
    "\u0120culturally": 15792,
    "\u00e3\u0125\u00b3": 46763,
    "\u0120eBook": 43402,
    "Birds": 45510,
    "Trade": 42870,
    "folk": 22662,
    "choices": 32856,
    "tear": 41402,
    "ideos": 28904,
    "wo": 6466,
    "\u0120Eurasian": 37642,
    "\u0120Cambodian": 46998,
    "\u0120HO": 25112,
    "ale": 1121,
    "\u0120Scul": 34105,
    "\u0120imp": 521,
    "\u0120regularity": 44073,
    "\u0120soap": 11970,
    "\u0120Investing": 43245,
    "[-": 9197,
    "\u0120accomplished": 11832,
    "\u0120suppose": 15699,
    "\u0120ze": 29198,
    "environmental": 39120,
    "\u0120cafeter": 40304,
    "\u0120east": 6251,
    "Gui": 23334,
    "\u0120Fors": 44734,
    "\u0120)": 2481,
    "worthy": 18508,
    "\u0120Office": 7054,
    "\"]": 3222,
    "usch": 25618,
    "wash": 28599,
    "\u0120Pak": 44514,
    "\u0120coordination": 11761,
    "\u0120battle": 5182,
    "\u0120girlfriend": 48408,
    "rivers": 29266,
    "kers": 20024,
    "\u0120Nov": 9505,
    "heed": 34463,
    "\u0120solvents": 30202,
    "orms": 46460,
    "\u0120adaptive": 13522,
    "Sym": 12754,
    "winter": 39254,
    "\u0120ge": 2417,
    "\u0120proportional": 18716,
    "\u0120Edwards": 24980,
    "\u0120whipped": 44381,
    "\u0120hometown": 32111,
    "warm": 28444,
    "\u0120Ling": 38580,
    "Vel": 47823,
    "\u0120plume": 33223,
    "Exec": 19149,
    "money": 31741,
    "+\"": 23842,
    "\u0120Cybersecurity": 42812,
    "\u0120Researchers": 11536,
    "ultural": 19809,
    "mates": 10982,
    "\u0120earnings": 17627,
    "\u0120pursu": 6809,
    "riday": 31747,
    "dist": 8184,
    "\u0120naturalistic": 42148,
    "orphic": 48481,
    "\u0120Illinois": 11243,
    "\u0120desktop": 19104,
    "\u0120ingen": 18686,
    "\u0120tribal": 13523,
    "nlm": 30328,
    "\u0120responses": 5928,
    "dimensions": 38930,
    "\u0120Voices": 33766,
    "\u0120Forest": 8504,
    "\u0120stumbled": 15979,
    "\u0120heuristic": 47802,
    "itz": 7711,
    "\u0120dwarf": 19119,
    "__(*": 47361,
    "\u0120CN": 12046,
    "gt": 13626,
    "omed": 13566,
    "\u0120metaphorical": 35014,
    "\u0120Setup": 40486,
    "\u0120replace": 4819,
    "rb": 18790,
    "planes": 18496,
    "\u0120helicopters": 33967,
    "ilet": 48117,
    "isnan": 48830,
    "\u0120axis": 6867,
    "\u0120gir": 4201,
    "acic": 27083,
    "ashing": 3540,
    "\u0120rigidity": 38792,
    "\u0120horse": 6391,
    "BooleanField": 43920,
    "\u0120industries": 6686,
    "\u0120Install": 23195,
    "==": 1189,
    "\u0120lin": 12268,
    "\u0120backed": 18216,
    "quiries": 27337,
    "Distribution": 35388,
    "|')": 32056,
    "\u0120entitlement": 46470,
    "\u0120Lucy": 19388,
    "\u0120opening": 6021,
    "ILY": 47319,
    "analysis": 14975,
    "ping": 4200,
    "\u0120gle": 35566,
    "\u0120desk": 10917,
    "ern": 869,
    "\u00c5\u00a1": 20848,
    "\u0120Humph": 36545,
    "Dam": 37580,
    "\u0120KIND": 23890,
    "\u0120disks": 26113,
    "\u0120\u00e5": 13223,
    "go": 2345,
    "heat": 17716,
    "\u0120Pav": 29396,
    "\u0120ROI": 46898,
    "\u0120rate": 2421,
    "Elect": 15131,
    "amboo": 17471,
    "nea": 12504,
    "\u0120skeletons": 31779,
    "armac": 28705,
    "backend": 24179,
    "\u0120sc": 806,
    "chosen": 48865,
    "mberg": 37554,
    "\u00e4\u00b8\u0122": 22924,
    "\u00bc": 137,
    "placeholder": 36558,
    "\u0120brilliant": 12978,
    "\u0120coalitions": 44989,
    "\u0120Buying": 48666,
    "\u0120Christian": 3554,
    "\u0120More": 2783,
    "\u00a6": 116,
    "\u0120Kab": 23459,
    "crets": 27623,
    "\u00d1\u0122\u00d0\u00b5": 36554,
    "ij": 5271,
    "\u0120gadget": 36299,
    "\u0120tonight": 34451,
    "aths": 21183,
    "\u0120NGOs": 21761,
    "\u0120pic": 18662,
    "elian": 31647,
    "pay": 9480,
    "\u0120Region": 15704,
    "\u0120humour": 41596,
    "riz": 8918,
    "\u0120uniting": 44267,
    "\u0120surrendered": 28401,
    "\u0120cruelty": 25100,
    "\u00e6\u013e": 14483,
    "estone": 10885,
    "\u0120layouts": 31362,
    "\u0120Sophie": 45223,
    "\u0120excerpts": 32324,
    "\u0120calculator": 17993,
    "\u0120impedance": 29774,
    "\u0120than": 670,
    "\u0120Assyria": 43792,
    "\u0120contact": 2770,
    "\u0120immunization": 28383,
    "\u0120petty": 37176,
    "\u0120Discrimination": 29381,
    "\u0120adjusted": 14919,
    "istine": 23660,
    "racted": 23569,
    "Van": 32981,
    "dar": 31368,
    "\u0120Venetian": 37120,
    "\u0120paleont": 35274,
    "\u0120Pere": 24435,
    "\u0120pause": 21289,
    "chem": 13079,
    "\u0120unbearable": 48929,
    "\u0120kitchen": 9902,
    "\u0120resembling": 23870,
    "advant": 8911,
    "sters": 10092,
    "\u0120additions": 23066,
    "utation": 18174,
    "\u0120transparent": 12375,
    "inality": 40101,
    "agg": 10282,
    "\u0120intend": 19970,
    "\u0120spectrum": 8439,
    "\u0120tmp": 16913,
    "arist": 26864,
    "\u0120Pascal": 45415,
    "\u0120exped": 9328,
    "Art": 9393,
    "walls": 31932,
    "dataset": 9551,
    "\u0120Disorder": 14232,
    "\u0120catastrophic": 18161,
    "\u0120foc": 32162,
    "\u0120silvery": 46702,
    "Sweet": 44914,
    "\u0120pop": 1139,
    "----------------------------------": 27848,
    "\u0120yr": 39533,
    "ration": 1409,
    "\u0120mandate": 19234,
    "\u0120shaft": 18781,
    "\u0120Provider": 43591,
    "\u0120Enh": 17071,
    "\u0120Cruc": 40711,
    "mur": 36927,
    "\u0120census": 13243,
    "\u0120cholera": 28191,
    "asion": 4574,
    "xlim": 37446,
    "\u0120clan": 23763,
    "\u0120mutation": 13884,
    "\u0120phishing": 28420,
    "\u0120theological": 20596,
    "abled": 7977,
    "catch": 31419,
    "\u0120Zurich": 39348,
    "\u0120differences": 3581,
    "\u0120logged": 25649,
    "\u0120coral": 12536,
    "\u0120sect": 3174,
    "\u0120cows": 14445,
    "\u0120kitchens": 33076,
    "\u0120alien": 12031,
    "\u0120seal": 11654,
    "\u0120proclaimed": 22489,
    "Ctrl": 40667,
    "\u0120Sensitivity": 40816,
    "Rose": 44124,
    "else": 13830,
    "\u0120offers": 3362,
    "\u0120coord": 4597,
    "\u0120recommendations": 7400,
    "\u0120spam": 26804,
    "embered": 12735,
    "short": 15539,
    "\u0120offices": 11595,
    "gaussian": 45776,
    "\u0120educator": 20676,
    "\u0120Cf": 45529,
    "REAM": 48815,
    "\u00d1\u0131": 16885,
    "\u0120isolate": 21016,
    "Grand": 29975,
    "\u0120Performance": 15990,
    "\u0120acidity": 24789,
    "attrib": 39929,
    "\u0120ultra": 18332,
    "destination": 29794,
    "LAGS": 28152,
    "wax": 36016,
    "\u0120demonstrating": 11232,
    "\u0120larva": 38248,
    "\u0120suffer": 6652,
    "\u0120agreement": 6415,
    "\u00e5\u013d\u00be": 46309,
    "\u0120Hawkins": 48947,
    "ard": 477,
    "\u0120Columb": 7179,
    "\u0120interspersed": 47211,
    "\u0120aboriginal": 37792,
    "\u0120manipulative": 46875,
    "\u0120permitting": 26707,
    "\u0120ps": 15891,
    "://": 1742,
    "\u0120shielding": 32477,
    "\u0120stanza": 35621,
    "sugar": 37923,
    "hedron": 39513,
    "\u0120prison": 6411,
    "\u0120tends": 10118,
    "\u0120EA": 42001,
    "\u0120U": 514,
    "\u0120grading": 19121,
    "\u0120category": 6881,
    "\u0120dared": 35818,
    "\u0120removes": 18229,
    "\u0120terraces": 43455,
    "cystic": 43518,
    "\u0120crusher": 35312,
    "\u0120Gree": 3650,
    "\u00e6\u012b\u0122": 48593,
    "\u0120enorm": 9243,
    "]')": 47065,
    "\u0120individually": 13785,
    "Iter": 28233,
    "anne": 24631,
    "fault": 46571,
    "\u0120lecture": 9364,
    "\u0120vigorously": 30512,
    "git": 16422,
    "\u0120destruction": 8040,
    "\u0120humidity": 11687,
    "via": 15104,
    "\u0120>>>": 10949,
    "\u0120artisanal": 43826,
    "\u0120confidential": 15011,
    "\u0120l": 303,
    "\u0120Bone": 25293,
    "\u0120Boost": 36673,
    "\u0120Performing": 35838,
    "\u0120surges": 38162,
    "\u0120third": 3464,
    "\u0120wa": 4398,
    "\u0120costs": 3499,
    "\u0120confounding": 43126,
    "sts": 7019,
    "ulative": 11398,
    "\u0120Gond": 46225,
    "anti": 20524,
    "\u0120pat": 987,
    "previous": 32653,
    "\u0120clinician": 36248,
    "\u0120senses": 12323,
    "Lily": 43490,
    "structures": 46504,
    "\u0120Mis": 19490,
    "\u0120decidedly": 47955,
    "\u0120geology": 19410,
    "inse": 19632,
    "\u0120louder": 35343,
    "\u0120alerts": 26307,
    "survey": 43417,
    "User": 11126,
    "\u0120blocks": 6703,
    "\u0120presenter": 46580,
    "SW": 10806,
    "\u00cf\u0128": 35461,
    "Special": 21841,
    "\u0120Reasoning": 39853,
    "\u0120Scene": 35550,
    "encil": 29138,
    "\u0120intensify": 38365,
    "\u0120presume": 44363,
    "\u0120SELECT": 35226,
    "\u0120annually": 10450,
    "\u0120poisons": 39680,
    "\u0120sandstone": 27572,
    "imread": 40089,
    "\u0120transmits": 38608,
    "\u0120analysts": 21273,
    "\u0120Gil": 15080,
    "\u0120Emory": 42921,
    "\u0120Hawaiian": 21521,
    "\u0120Moroc": 19305,
    "\u0120NE": 13344,
    "\u0120Pers": 6272,
    "\u0120TP": 39009,
    "\u0120Creation": 18920,
    "\u0120\")": 20361,
    "\u0120baker": 38993,
    "\u0120concentration": 6203,
    "\u0120following": 1695,
    "\u0120kernel": 11498,
    "\u0120limb": 16609,
    "\u0120ovarian": 21787,
    "\u0120nonverbal": 29359,
    "\u0120shooting": 14881,
    "\u0120toddler": 24035,
    "\u0120undesirable": 24129,
    "helpful": 44222,
    "\u0120PLC": 45546,
    "ensively": 13562,
    "\u0120Jag": 47029,
    "\u0120Money": 18066,
    "setter": 24215,
    "ices": 943,
    "\u0120confidentiality": 24467,
    "isely": 9182,
    "publication": 41616,
    "\u0120tropics": 31511,
    "gas": 21149,
    "\u0120Carth": 36078,
    "Ele": 35451,
    "\u0120CCSS": 43358,
    "AF": 11651,
    "emy": 33153,
    "\u0120Psych": 5950,
    "\u0120ensemble": 25943,
    "\u0120sites": 3879,
    "\u0120Snow": 16200,
    "\u0120half": 2745,
    "wort": 45692,
    "\u0120News": 6231,
    "\u0120phot": 2261,
    "chio": 44004,
    "\u0120alone": 4016,
    "\u0120explorers": 16034,
    "\u0120marin": 40499,
    "ause": 733,
    "\u0120abandoned": 11268,
    "\u0120remembers": 30058,
    ".\")": 9896,
    "ODO": 14798,
    "\u0120bg": 30772,
    "\u0120imb": 27127,
    "Speaking": 32431,
    "\u0120absence": 8559,
    "\u0120driver": 8443,
    "\u0120studios": 34566,
    "\u0120Epstein": 47749,
    "\u0120taxon": 17092,
    "ictionary": 5591,
    "olian": 44536,
    "\u00db": 166,
    "\u0120jewellery": 42280,
    "\u0120slides": 15427,
    "abetes": 3715,
    "\u0120Apples": 43448,
    "istem": 45159,
    "prior": 21246,
    "\u0120Depression": 13385,
    "\u0120pivotal": 13865,
    "Recognizing": 44430,
    "\u0120Britannica": 28962,
    "\u0120Shaw": 23810,
    "\u0120animate": 45966,
    "\u0120erythe": 45779,
    "\u0120vessels": 7117,
    "\u0120forward": 3703,
    "\u0120atheism": 47044,
    "\u0120happily": 22698,
    "\u0120Generated": 34517,
    "Budd": 34805,
    "\u0120Risks": 28375,
    "\u0120regularization": 45521,
    "Perhaps": 16801,
    "\u0120Omar": 48746,
    "Overall": 20832,
    "agiarism": 40145,
    "Constraint": 42992,
    "\u0120focussed": 45857,
    "\u0120glyphosate": 38016,
    "\u0120ordinances": 41055,
    "\u0120pend": 25171,
    "\u0120tested": 6326,
    "\u0120Stefan": 44160,
    "country": 16664,
    "phony": 20127,
    "ancip": 45308,
    "\u0120Tolkien": 35619,
    "\u0120straw": 11363,
    "\u0120sam": 25802,
    "forcement": 7389,
    "\u0120resume": 19563,
    "\u0120flaw": 16298,
    "Split": 38251,
    "Col": 5133,
    "serializers": 43038,
    "cian": 35614,
    "aper": 1581,
    "\u0120Presidency": 41269,
    "\u0120Rolling": 45600,
    "\u0120garrison": 30510,
    "\u0120poker": 47889,
    "\u0120First": 3508,
    "\u0120Siddh": 48955,
    "\u0120psychological": 6478,
    "\u0120sculpt": 8776,
    "\u0120USE": 30481,
    "\u0120distinguished": 12931,
    "\u0120illustrator": 41585,
    "\u0120PCOS": 33477,
    "pone": 47846,
    "\u0120Revised": 37523,
    "\u0120Reverse": 38981,
    "\u0120occasionally": 10322,
    "heit": 19052,
    "\u0120spreads": 17908,
    "enta": 32063,
    "atio": 29395,
    "atter": 2494,
    "\u0120Working": 11799,
    "\u0120dend": 28026,
    "shire": 21225,
    "\u0120perce": 27150,
    "\u0120probation": 41694,
    "\u0120scaffolding": 39081,
    "Id": 7464,
    "address": 10248,
    "\u0120serializers": 40248,
    "\u0120sightings": 28718,
    "\u0120singing": 12027,
    "riptive": 36869,
    "\u0120Sections": 45303,
    "\u0120cho": 2204,
    "\u0120appropriateness": 48406,
    "\u0120kil": 6222,
    "drug": 28836,
    "\u0120lawsuits": 31549,
    "edic": 15092,
    "\u0120election": 8339,
    "\u0120reformers": 39094,
    "naissance": 20323,
    "when": 12609,
    "ertain": 1327,
    "-'": 42086,
    "availability": 33189,
    "\u0120HA": 27895,
    "\u0120Prepar": 15864,
    "\u0120Added": 39375,
    "\u0120Nebula": 48759,
    "\u0120karma": 35623,
    "\u0120Turkish": 13769,
    "\u0120attributes": 9038,
    "\u0120mort": 5611,
    "\u0120creat": 1339,
    "\u0120purse": 42882,
    "\u0120sales": 7122,
    "\u0120shrinkage": 40204,
    "\u0120getting": 2967,
    "\u0120soccer": 14862,
    "\u0120transition": 6080,
    "elly": 11052,
    "numerable": 39537,
    "Acts": 33465,
    "\u0120Harr": 11958,
    "Msg": 43841,
    "\u0120ranchers": 35548,
    "Objective": 32677,
    "Studying": 46270,
    "\u0120hegemon": 30002,
    "\u0120pancakes": 45137,
    "\u0120Die": 10978,
    "\u0120SE": 11991,
    "\u0120bypass": 19352,
    "\u0120Messages": 46605,
    "\u0120penet": 10742,
    "bps": 31708,
    "\u0120formulas": 18306,
    "\u0120vitality": 24629,
    "\u0120culmin": 17512,
    "\u0120newborn": 14665,
    "\u0120pickle": 19893,
    "\u0120Acids": 37663,
    "\u0120pouring": 24373,
    "friends": 35166,
    "\u0120PC": 6763,
    "\u0120solubility": 41431,
    "\u0120announce": 13569,
    "aten": 16855,
    "\u0120associations": 11714,
    "\u0120annum": 43691,
    "\u0120engineered": 18666,
    "arid": 40221,
    "nm": 25543,
    "\\\\": 12332,
    "\u0120ASP": 34027,
    "Entry": 25066,
    "Seq": 28204,
    "\u0120guarding": 37453,
    "\u0120assault": 11905,
    "\u00e5\u0131\u00af": 37139,
    "Code": 15832,
    "ception": 3296,
    "\u0120assured": 19054,
    "\u0120jealousy": 31893,
    "../../": 40256,
    "\u0120observer": 18971,
    "arrowing": 43004,
    "\u0120firewood": 36701,
    "everse": 31307,
    "\u0120miniature": 19261,
    "\u0120superiority": 25472,
    "\u0120warranted": 29168,
    "hao": 32605,
    "\u0120Neutral": 45752,
    "\u0120COVID": 7191,
    "\u0120best": 1450,
    "\u0120peanuts": 28087,
    "\u0120threaded": 42161,
    "\u0120Raise": 43131,
    "res": 375,
    "\u0120Oakland": 35867,
    "\u0120Humor": 47155,
    "\u0120Glenn": 34864,
    "\u0120RS": 28201,
    "\u0120advocated": 21012,
    "iphy": 43758,
    "ikes": 14922,
    "enhower": 29413,
    "\u0120lay": 2060,
    "\u0120median": 13876,
    "Score": 32226,
    "\u0120Removal": 33382,
    "phosphate": 40675,
    "\u0120pamph": 27233,
    "\u0120precaution": 29886,
    "\u0120rear": 13401,
    "vn": 37863,
    "\u0120Assist": 36540,
    "\u0120closet": 38988,
    "\u0120cockpit": 45031,
    "\u0120plough": 41650,
    "\u0120Taj": 33127,
    "\u0120vou": 36890,
    "onders": 36997,
    "itus": 11530,
    "DAT": 27543,
    "\u0120Jeremy": 36895,
    "amma": 9952,
    "\u0120bombers": 32587,
    "\u0120cripp": 29240,
    "pent": 18939,
    "acl": 27014,
    "gevity": 16561,
    "\u0120pages": 5158,
    "\u0120partitions": 35661,
    "\u0120Them": 31087,
    "\u0120buy": 4571,
    "\u0120summertime": 48949,
    "\u0120enjoy": 2815,
    "routing": 47727,
    "small": 16497,
    "\u0120Scand": 20101,
    "\u0120wings": 10853,
    "Place": 21781,
    "\u0120Grant": 13097,
    "\u00e1\u00b9\u0125": 46492,
    "Url": 33319,
    "\u0120Rica": 25715,
    "\u0120allergies": 11163,
    "\u0120acronym": 29155,
    "\u0120cloves": 32420,
    "\u0120emblem": 29903,
    "extra": 20082,
    "\u0120Copyright": 10504,
    "\u0120Level": 9673,
    "\u0120evapor": 22215,
    "\u0120fleshy": 43177,
    "cium": 6339,
    "\u0120pg": 23070,
    "\u0120representations": 11605,
    "\u0120comput": 1720,
    "Sept": 16811,
    "\u0120clo": 24389,
    "components": 22195,
    "\u0120cloned": 45233,
    "\u0120snapshots": 44407,
    "ologist": 4965,
    "ront": 2508,
    "\u0120Consulting": 38496,
    "\u0120Apostle": 39811,
    "QUE": 41074,
    "\u0120graze": 42866,
    "\u0120Rank": 31832,
    "\u0120fruit": 4354,
    "\u0120healed": 31003,
    "\u0120supervise": 33548,
    "inv": 9359,
    "opor": 16038,
    "relevant": 41633,
    "\u0120Birmingham": 22710,
    "\u0120Russians": 21573,
    "\u0120anticipating": 36677,
    "icut": 15256,
    "\u0120Sanct": 30852,
    "\u0120golden": 10908,
    "Six": 30263,
    "achev": 46249,
    "\u0120hardy": 24384,
    "\u0120partake": 46131,
    "\u0120plugins": 40957,
    "\u0120towel": 23011,
    "ournal": 3830,
    "\u0120displ": 8054,
    "\u0120blockers": 40749,
    "asures": 9412,
    "brow": 24719,
    "illusion": 37790,
    "watering": 24786,
    "Ag": 12478,
    "detector": 47427,
    "diabetes": 44204,
    "omic": 5854,
    "rystalline": 42085,
    "\u0120Synthesis": 39335,
    "\u0120avail": 1631,
    "\u0120overest": 38184,
    "\u0120undergraduate": 13031,
    "GH": 23960,
    "\u0120Sold": 22631,
    "\u0120solitary": 22097,
    "\u0120phenotypes": 39204,
    "attention": 26256,
    "\u0120humility": 20196,
    "Pros": 48464,
    "{": 107,
    "\u0120Rush": 25162,
    "\u0120publish": 6835,
    "ramatic": 41863,
    "vv": 38067,
    "epid": 31515,
    "ipes": 23678,
    "secution": 13057,
    "\u00ce\u0143": 34075,
    "\u0120VPN": 25357,
    "\u0120crayons": 35882,
    "\u0120ducks": 26077,
    "arly": 1019,
    "brushes": 41652,
    "\u0120Aerospace": 36205,
    "gotten": 37685,
    "\u0120NP": 30017,
    "qu": 385,
    "\u0120forever": 9816,
    "\u0120Curriculum": 17457,
    "\u0120map": 4141,
    "\u0120EEG": 30073,
    "\u0120Sri": 14923,
    "\u0120Bi": 4459,
    "auses": 17064,
    "\u0120mortgages": 40948,
    "\u0120pediatric": 12685,
    "\u0120tar": 12331,
    "opolis": 46921,
    "istas": 38889,
    "=%": 23446,
    "otive": 14551,
    "tesy": 14239,
    "Mis": 45711,
    "\u0120periodic": 15246,
    "\u0120schedules": 16214,
    "\u0120Creat": 6577,
    "\u0120Learned": 34939,
    "\u0120schooling": 20246,
    "]))": 10507,
    "Published": 18728,
    "optic": 25542,
    "\u0120switch": 6261,
    "abit": 45209,
    "\u0120Through": 3121,
    "\u0120tid": 32291,
    "\u0120fertiliser": 44238,
    "ounces": 26168,
    "Der": 30913,
    "\u0120Guitar": 47534,
    "\u0120southeastern": 23739,
    "erves": 11928,
    "\u0120petroleum": 17923,
    "\u0120Pink": 27491,
    "\u0120Calendar": 29779,
    "\u0120secretary": 18353,
    "\u0120synonym": 34963,
    "\u0120text": 1694,
    "\u0120zero": 6708,
    "lene": 23306,
    "\u0120ric": 12029,
    "\u0120reuse": 16828,
    "\u0120comprehending": 29799,
    "iacin": 37768,
    "\u0120charger": 41500,
    "NIH": 39696,
    "Construct": 39715,
    "\u0120Existing": 41573,
    "\u0120te": 543,
    "uming": 11946,
    "\u0120vengeance": 41257,
    "\u0120underrepresented": 26055,
    "\u0120nursing": 11040,
    "awatts": 36262,
    "\u0120\u010a\u010a": 38028,
    "\u0120Dick": 15992,
    "hern": 2300,
    "\u0120Assuming": 34937,
    "\u0120Library": 6750,
    "\u0120thermal": 9002,
    "\u0120apartments": 32249,
    "aney": 32475,
    "urethane": 46311,
    "\u0120instruct": 4133,
    "\u0120Distinguished": 43166,
    "RT": 16895,
    "\u0120shin": 40507,
    "empl": 4762,
    "izophrenia": 16164,
    "\u0120sar": 34163,
    "concatenate": 28618,
    "\u0120narrowed": 34153,
    "\u0120achieve": 3025,
    "\u0120Support": 9352,
    "\u0120Rah": 31869,
    "\u0120Ret": 3155,
    "OCK": 31121,
    "\u0120Fur": 33817,
    "\u0120Justice": 9423,
    "\u0120notification": 24408,
    "\u0120puzzling": 38512,
    "\u0120volunteered": 36870,
    "\u0120smaller": 3764,
    "\u0120helpers": 30402,
    "\u0120globe": 8788,
    "inside": 40265,
    "\u0120novel": 3562,
    "\u0120prophetic": 33212,
    "\u0120donors": 19940,
    "\u0120Hunter": 26414,
    "\u0120Gom": 44692,
    "\u0120Hat": 23965,
    "\u0120Northeastern": 44858,
    "\u0120disappointment": 26624,
    "ilus": 36628,
    "\u0120Byron": 35456,
    "\u0120Idea": 25168,
    "\u0120harmful": 5794,
    "\u0120is": 314,
    "\u0120knights": 27293,
    "\u0120managed": 6240,
    "eroids": 21098,
    "\u0120unle": 25255,
    "\u0120composite": 15674,
    "\u0120apes": 30491,
    "\u0120Showing": 48564,
    "\u0120Calculator": 38705,
    "\u0120who": 617,
    "\u0120bulbs": 14859,
    "\u0120Medina": 40137,
    "inel": 25092,
    "ishers": 11670,
    "\u0120officers": 8497,
    "\u0120reclaim": 26400,
    "\u0120improvised": 48996,
    "Protein": 39043,
    "\u0120Che": 4332,
    "\u0120intrigue": 27928,
    "\u0120biopsies": 43210,
    "\u0120recite": 36838,
    "inqu": 20756,
    "ems": 1687,
    "\u0120Marshall": 16989,
    "\u0120______": 24770,
    "hidden": 15734,
    "\u0120Military": 13751,
    "\u0120dazzling": 43312,
    "\u0120Within": 10043,
    "\u0120seventy": 25396,
    "\u0120theoretical": 8437,
    "\u0120transfers": 19360,
    "\u0120Ezra": 40307,
    "Al": 2219,
    "\u0120eluc": 19236,
    "\u0120vote": 7507,
    "\u0120contaminants": 17356,
    "\u0120sem": 4337,
    "kefeller": 33581,
    "\u0120commas": 45910,
    "subst": 28936,
    "tti": 28687,
    "\u0120type": 1502,
    "ting": 862,
    "\u0120slip": 16710,
    "\u00c2\u00a3": 37564,
    "\u0120Dallas": 26219,
    "\u0120partly": 11555,
    "\u0120directives": 37505,
    "\u0120denomination": 38167,
    "funded": 22645,
    "\u0120Manila": 35288,
    "awed": 27242,
    "\u0120ich": 45202,
    "alchemy": 29964,
    "socket": 24357,
    "\u0120machinery": 12433,
    "\u0120latter": 6791,
    "entials": 13051,
    "resolved": 27329,
    "\u0120Software": 12316,
    "\u0120Changes": 16691,
    "\u0120masonry": 31406,
    "\u0120sexuality": 15488,
    "\u0120tariff": 33132,
    "\u0120bites": 17792,
    "\u0120Fame": 40241,
    "dered": 6605,
    "ores": 2479,
    "\u0120dispers": 11747,
    "[:]": 38727,
    "\u0120esoteric": 39159,
    "\u0120lamb": 22951,
    "\u0120Char": 4291,
    "\u0120probabilities": 23377,
    "\u0120theater": 14249,
    "\u0120Theorem": 37050,
    "href": 36574,
    "stere": 41482,
    "rough": 630,
    "\u0107": 195,
    "\u0120Premier": 40389,
    "\u0120Koreans": 41397,
    "\u0120callable": 38137,
    "\u0120Allan": 30068,
    "\u0120proceedings": 16199,
    "nsics": 38884,
    "\u0120tubes": 12495,
    "\u0120Struct": 15045,
    "\u0120reused": 30211,
    "\u0120closeness": 47425,
    "\u0120Citation": 34358,
    "\u0120Galile": 19291,
    "\u0120bounded": 32273,
    "\u0120eru": 9607,
    "\u0120heel": 21648,
    "\u0120rehabilit": 35627,
    "\u0120vol": 1860,
    "Idx": 46992,
    "atized": 32982,
    "aze": 9699,
    "aj": 1346,
    "\u0120Mons": 28565,
    "\u0120focused": 4782,
    "\u0120risks": 4143,
    "\u0120worship": 8754,
    "\u0120unmet": 49090,
    "alb": 35885,
    "etes": 31961,
    "\u0120aggravate": 45492,
    "\u0120adorable": 39166,
    "\u0120vacc": 3451,
    "\u0120transfusion": 38598,
    "obacter": 26631,
    "\u0120viewer": 19761,
    "grey": 39572,
    "\u0120nx": 34474,
    "iox": 8491,
    "\u0120surge": 8839,
    "\u0120interesting": 3684,
    "\u0120Sexual": 20895,
    "\u0120shared": 3600,
    "\u0120imposing": 22600,
    "Academ": 33105,
    "\u0120structuring": 39434,
    "/%": 22953,
    "ifying": 4318,
    "rish": 15527,
    "\u0120Commonwealth": 18513,
    "\u0120Massachusetts": 10197,
    "\u0120instead": 2489,
    "\u0120cush": 24111,
    "\u0120tow": 8658,
    "\u0120Lil": 38607,
    "\u0120aristocratic": 39643,
    "\u0120illum": 9987,
    "\u0120Sally": 20116,
    "\u0120Dim": 18894,
    "\u0120components": 3439,
    "Results": 21464,
    "WH": 14779,
    "distance": 12179,
    "onym": 7865,
    "\u00e1\u00b9\u0129": 28272,
    "\u0120Gen": 2447,
    "Off": 16654,
    "aea": 30338,
    "Attention": 41319,
    "anguage": 5231,
    "tb": 27338,
    "\u0120AttributeError": 36548,
    "\u0120Mack": 23391,
    "\u0120Carrier": 44237,
    "\u00e6\u0142\u0129": 46781,
    "\u0120Millions": 39172,
    "air": 1185,
    "props": 24823,
    "\u0120M\u00c3\u00a9tis": 40687,
    "arians": 12015,
    "lane": 37403,
    "\u0120academia": 13762,
    "\u0120adversely": 26560,
    "oelectric": 30851,
    "trade": 25597,
    "\u0120Sundays": 45524,
    "\u0120annotation": 28139,
    "\u0120appropriated": 42967,
    "compress": 40872,
    "\u0120archaeologist": 33016,
    "\u0120Allergies": 45058,
    "\u0120classrooms": 12135,
    "\u0120complete": 2994,
    "\u0120conserv": 9715,
    "\u0120here": 1535,
    "Nor": 27737,
    "\u0120Versailles": 37628,
    "Higher": 42877,
    "forts": 41931,
    "\u0120Nob": 10408,
    "\u0120apocalyptic": 46250,
    "\u0120hundred": 3822,
    "\u0120overheard": 48898,
    "\u0120schedul": 9921,
    "\u0120before": 1092,
    "\u0120republics": 44797,
    "\u0120industry": 2729,
    "Information": 19256,
    "\u0120scenes": 9561,
    "\u0120stray": 26912,
    "\u00e2\u0138": 11007,
    "\u0120urban": 4343,
    "\u0120Schmidt": 32132,
    "\u0120greatly": 6899,
    "\u0120unanim": 28895,
    "\u0120hue": 26277,
    "('_": 30576,
    "\u0120slack": 36432,
    "\u0120Goal": 29570,
    "\u0120tectonics": 48307,
    "\u0120Of": 3513,
    "\u0120Sel": 15945,
    "rews": 30446,
    "tained": 22397,
    "semin": 17998,
    "\u0120simmer": 30398,
    "folios": 34144,
    "Desc": 19196,
    "\u0120emit": 11211,
    "\u0120Saudi": 16697,
    "ATO": 35472,
    "\u0120Sha": 32450,
    "\u0120yearning": 46697,
    "Brain": 29775,
    "rap": 3526,
    "\u0120castles": 27798,
    "oom": 6364,
    "\u0120pesticide": 18218,
    "generational": 21069,
    "\u0120belonged": 17058,
    "\u0120Procedures": 34366,
    "(\"#": 47768,
    "\u0120Debate": 38738,
    "\u0120experiential": 24497,
    "\u0120Spr": 13872,
    "\u0120streak": 44717,
    ").__": 15810,
    "\u0120Heart": 9249,
    "\u0120Reaction": 38926,
    "\u0120anger": 9846,
    "\u0120crypto": 31179,
    "\u0120prospective": 16633,
    "\u0120shedding": 19723,
    "termedi": 31541,
    "\u0120rpm": 43095,
    "\u0120sake": 15215,
    "prec": 36776,
    "\u0120emulsion": 45503,
    "kid": 44678,
    "\u0120Lazarus": 46632,
    "\u0120donor": 17406,
    "\u0120nicely": 23263,
    "\u00cf\u0125": 18751,
    "\u0120evolution": 4162,
    "\u0120sang": 28729,
    "\u0120Vid": 45628,
    "\u0120planner": 34830,
    "\u0120conscience": 20078,
    "Typical": 46436,
    "Fact": 13486,
    "\u0120Eliza": 48011,
    "\u0120therapist": 13449,
    "\u0120Hirosh": 30490,
    "certified": 40427,
    "tw": 10372,
    "\u0120schol": 4148,
    "\u0120favourite": 20334,
    "Known": 40845,
    "onent": 8930,
    "gamma": 22143,
    "\u0120Vice": 20605,
    "forms": 11505,
    "minist": 2924,
    "\u0120Dra": 17125,
    "\u0120brut": 13952,
    "\u0120remedy": 15626,
    "\u0120strain": 8257,
    "ORY": 20265,
    "er": 259,
    "istical": 7528,
    "\u0120alphabet": 12567,
    "enny": 10298,
    "\u0120GitHub": 40029,
    "\u0120gentlemen": 37424,
    "\u0120sq": 15375,
    "ceptions": 7665,
    "\u0120countryside": 20959,
    "\u0120cirrhosis": 32814,
    "atom": 21411,
    "Foods": 45043,
    "\u0120Northern": 7453,
    "\u0120Pro": 1053,
    "\u0120branched": 41676,
    "isle": 28989,
    "DateTimeField": 35577,
    "\u0120Pedro": 31081,
    "\u0120Ever": 17113,
    "\u0120Lowell": 45658,
    "asc": 2178,
    "uing": 5852,
    "\u0120Public": 4837,
    "\u0120Technological": 28897,
    "\u0120Tenn": 12177,
    "\u0120Th": 525,
    "\u0120ace": 43324,
    "ster": 2813,
    "\u0120draw": 2634,
    "\u0120covariance": 34353,
    "\u0120admire": 22145,
    "\u0120exoplan": 31281,
    "\u0120festival": 12587,
    "\u0120gy": 16167,
    "\u0120hid": 31360,
    "\u0120kilometers": 12091,
    "\u0120assignments": 11552,
    "\u0120favoured": 36157,
    "arco": 49109,
    "same": 23044,
    "bur": 7993,
    "\u0120nat": 32142,
    "\u0120Ecosystem": 26143,
    "\u0120Hg": 38172,
    "\u0120penicillin": 40155,
    "\u0120roof": 7344,
    "\u0120snapping": 45184,
    "\u00c3\u00b1a": 27974,
    "++++++++": 48986,
    "amination": 8073,
    "inth": 12749,
    "loom": 31529,
    "Enabled": 38566,
    "uptools": 37890,
    "\u0120Charleston": 29763,
    "ceae": 35152,
    "\u0120Weak": 33922,
    "lev": 22376,
    "\u0120SW": 18385,
    "\u0120baseline": 15046,
    "\u00d0\u00b5\u00d1\u0122": 29668,
    "poke": 44894,
    "\u0120classes": 4547,
    "\u0120horn": 12485,
    "\u0120hospitalized": 31650,
    "acher": 7989,
    "\u0120misman": 46236,
    "\u0120reds": 32091,
    "uid": 8413,
    "\u0120GPA": 28780,
    "\u0120af": 6136,
    "\u0120Loc": 16635,
    "\u0120Orchestra": 43088,
    "\u0120restaurant": 15238,
    "\u0120rab": 8122,
    "\u0120lawn": 12782,
    "\u0120fishery": 28562,
    "\u0120dis": 510,
    "\u0120sides": 5882,
    "accept": 13485,
[...]
